{
    "<pad>": 0,
    "</s>": 1,
    "<unk>": 2,
    "\u2581": 3,
    "X": 4,
    ".": 5,
    ",": 6,
    "s": 7,
    "\u2581the": 8,
    "a": 9,
    ":": 10,
    "\u2581and": 11,
    "\u2581to": 12,
    "\u2581of": 13,
    "\u2581fill": 14,
    "e": 15,
    "\u2581in": 16,
    "t": 17,
    "-": 18,
    "\u2581is": 19,
    "\u2581de": 20,
    "\u2581for": 21,
    "\u2019": 22,
    "i": 23,
    "\u2581that": 24,
    "\u2581you": 25,
    "d": 26,
    "\u2581I": 27,
    "\u2581with": 28,
    "n": 29,
    "\u2581on": 30,
    "'": 31,
    "o": 32,
    "\u2581are": 33,
    "\u2581it": 34,
    "en": 35,
    "\u2581be": 36,
    "\u2581The": 37,
    "\u2581as": 38,
    "\u2581your": 39,
    "l": 40,
    "\u2581(": 41,
    "\u2581or": 42,
    "\u2581have": 43,
    "\u2581at": 44,
    "\u2581from": 45,
    "\u2581an": 46,
    "\u2581was": 47,
    "\u2581this": 48,
    "er": 49,
    "\u2581la": 50,
    "m": 51,
    "r": 52,
    "ing": 53,
    "\u2581can": 54,
    "!": 55,
    "\u2581will": 56,
    "\u2581by": 57,
    "?": 58,
    "\u2581not": 59,
    "re": 60,
    ")": 61,
    "\u2581we": 62,
    "y": 63,
    "\u2581und": 64,
    "\u2581has": 65,
    "\u2581all": 66,
    "\u2581die": 67,
    "\u2581but": 68,
    "\u2581our": 69,
    "\u2581their": 70,
    "\u2581A": 71,
    "\u2581more": 72,
    "\u2581un": 73,
    "\u2581der": 74,
    "c": 75,
    "u": 76,
    "in": 77,
    "\u2581so": 78,
    "\u2581they": 79,
    "\u2581one": 80,
    "\u2581about": 81,
    "\u2581my": 82,
    "ul": 83,
    "\u2581which": 84,
    "\u00e0": 85,
    "\u2581In": 86,
    "/": 87,
    "he": 88,
    "f": 89,
    "\u2581le": 90,
    "\u2581out": 91,
    "\u2581also": 92,
    "\u2581des": 93,
    "\u2581It": 94,
    "\u2581up": 95,
    "\u2581\"": 96,
    "\u2581time": 97,
    "\u0103": 98,
    "if": 99,
    "\u2581This": 100,
    "\u2581We": 101,
    "p": 102,
    "\u2581do": 103,
    "\u2013": 104,
    "\u2581\u201c": 105,
    "on": 106,
    "h": 107,
    "\u2581si": 108,
    "le": 109,
    "\u2581les": 110,
    "\u2581\u00een": 111,
    "\u2581his": 112,
    "\u2581who": 113,
    "\u2581like": 114,
    "b": 115,
    "\u2581when": 116,
    ";": 117,
    "\u2581been": 118,
    "\u2581other": 119,
    "ly": 120,
    "\"": 121,
    "g": 122,
    "\u2581cu": 123,
    "\u2581care": 124,
    "\u2581what": 125,
    "\u2581new": 126,
    "or": 127,
    "\u2581some": 128,
    "\u2581get": 129,
    "\u2581were": 130,
    "\u2581just": 131,
    "\u2581there": 132,
    "\u2581would": 133,
    "S": 134,
    "\u2581them": 135,
    "\u2581any": 136,
    ").": 137,
    "al": 138,
    "\u2581into": 139,
    "\u2581me": 140,
    "\u2581had": 141,
    "\u2581se": 142,
    "\u2581make": 143,
    "at": 144,
    "\u2581than": 145,
    "\u2581du": 146,
    "\u2581over": 147,
    "\u2581You": 148,
    "\u2581how": 149,
    "\u2581no": 150,
    "\u2581people": 151,
    "an": 152,
    "\u201d": 153,
    "\u00e9": 154,
    "it": 155,
    "\u2581If": 156,
    "k": 157,
    "\u2581pe": 158,
    "is": 159,
    "\u2581her": 160,
    "\u2581work": 161,
    "ve": 162,
    "\u2581only": 163,
    "\u2581may": 164,
    "\u2581its": 165,
    "\u2581first": 166,
    "\u2581most": 167,
    "\u2581well": 168,
    "\u2581use": 169,
    "\u2581zu": 170,
    "\u2581pour": 171,
    "z": 172,
    "il": 173,
    "\u2581need": 174,
    "\u2581these": 175,
    "\u2581din": 176,
    "\u2581den": 177,
    "\u2581us": 178,
    "able": 179,
    "\u2581S": 180,
    "\u2581mit": 181,
    "\u2581very": 182,
    "\u2581am": 183,
    "&": 184,
    "\u2581au": 185,
    "\u2581many": 186,
    "\u2581mai": 187,
    "A": 188,
    "th": 189,
    "\u2581through": 190,
    "\u2581pentru": 191,
    "\u2581two": 192,
    "\u2581von": 193,
    "\u2581way": 194,
    "ll": 195,
    "I": 196,
    "\u2581ce": 197,
    "\u2581\u0219i": 198,
    "\u2581help": 199,
    "\u2581best": 200,
    "),": 201,
    "un": 202,
    "\u2581years": 203,
    "\u25812": 204,
    "\u2581C": 205,
    "\u2581nu": 206,
    "\u2581good": 207,
    "v": 208,
    "\u25811": 209,
    "w": 210,
    "\u2581das": 211,
    "\u2581ca": 212,
    "\u2581where": 213,
    "\u2581know": 214,
    "\u2581year": 215,
    "\u2581He": 216,
    "\u2581see": 217,
    "\u2581f\u00fcr": 218,
    "\u2581auf": 219,
    "\u25813": 220,
    "de": 221,
    "est": 222,
    "\u2581back": 223,
    "\u2581such": 224,
    "\u2581should": 225,
    "x": 226,
    "\u2581after": 227,
    "\u2581could": 228,
    "\u2581ist": 229,
    "\u2581now": 230,
    "\u2581much": 231,
    "and": 232,
    "...": 233,
    "\u2581home": 234,
    "to": 235,
    "\u2581ein": 236,
    "\u2581even": 237,
    "\u2581que": 238,
    "\u2581day": 239,
    "\u2581take": 240,
    "\u2581want": 241,
    "\u2581For": 242,
    "\u2581said": 243,
    "\u2581sur": 244,
    "\u2581une": 245,
    "\u2581s\u0103": 246,
    "\u2581dans": 247,
    "\u2581great": 248,
    "\u2581este": 249,
    "\u2581because": 250,
    "\u2581information": 251,
    "ului": 252,
    "\u2581find": 253,
    "C": 254,
    "\u2581she": 255,
    "\u2581im": 256,
    "ation": 257,
    "\u2581then": 258,
    "\u2581est": 259,
    "\u2581par": 260,
    "\u2581used": 261,
    "\u2581E": 262,
    "\u2581made": 263,
    "\u2581So": 264,
    "am": 265,
    "\u2581eine": 266,
    "\u2581\u015fi": 267,
    "\u2581business": 268,
    "\u2581right": 269,
    "\u2581here": 270,
    "\u2581being": 271,
    "\u2581B": 272,
    "\u2581those": 273,
    "\u2581before": 274,
    "\u2581And": 275,
    "\u2581P": 276,
    "ers": 277,
    "\u2581don": 278,
    "B": 279,
    "\u2581life": 280,
    "\u2581go": 281,
    "\u2581As": 282,
    "\u2581M": 283,
    "\u2581each": 284,
    "\u2581qui": 285,
    "\u2581place": 286,
    "com": 287,
    "ant": 288,
    "\u2581sich": 289,
    "\u2581There": 290,
    "ar": 291,
    "\u2581Sie": 292,
    "\u2581own": 293,
    "\u2581part": 294,
    "ent": 295,
    "\u2581world": 296,
    "ment": 297,
    "\u2581while": 298,
    "\u2581But": 299,
    "\u2581around": 300,
    "\u2581L": 301,
    "us": 302,
    "\u2581plus": 303,
    "\u2581To": 304,
    "\u25815": 305,
    "\u2581high": 306,
    "\u2581long": 307,
    "D": 308,
    "\u2581D": 309,
    "\u2581really": 310,
    "\u2581nicht": 311,
    "\u2581Le": 312,
    "\u2581service": 313,
    "\u25814": 314,
    "\u2581different": 315,
    "\u2581Die": 316,
    "\u2581think": 317,
    "\u2014": 318,
    "\u2581auch": 319,
    "\u2581look": 320,
    "\u2581both": 321,
    "lor": 322,
    "\u2581down": 323,
    "ten": 324,
    "\u2581La": 325,
    "\u2581off": 326,
    "\u2581vous": 327,
    "\u2581They": 328,
    "M": 329,
    "\u2581pas": 330,
    "\u2581data": 331,
    "\u2581T": 332,
    "\u2581love": 333,
    "\u2581every": 334,
    "\u258110": 335,
    "\u2581last": 336,
    "\u2581same": 337,
    "\u2581using": 338,
    "\u2581free": 339,
    "\u2581dem": 340,
    "\u2581still": 341,
    "ate": 342,
    "ist": 343,
    "\u2581between": 344,
    "P": 345,
    "be": 346,
    "\u2581available": 347,
    "man": 348,
    "\u2581company": 349,
    "\u2581G": 350,
    "\u2581experience": 351,
    "\u2581going": 352,
    "\u2581site": 353,
    "j": 354,
    "are": 355,
    "\u2581set": 356,
    "2": 357,
    "\u2581system": 358,
    "\u2581important": 359,
    "\u2581few": 360,
    "\u2581fi": 361,
    "ich": 362,
    "\u2581What": 363,
    "\u2581services": 364,
    "\u2581under": 365,
    "\u2581When": 366,
    "\u2581online": 367,
    "\u2581New": 368,
    "\u2581come": 369,
    "\u2581provide": 370,
    "F": 371,
    "\u2581team": 372,
    "\u2581always": 373,
    "\u2581De": 374,
    "\u2581c\u0103": 375,
    "\u2581him": 376,
    "\u2581F": 377,
    "\u2581things": 378,
    "\u2581including": 379,
    "\u2581support": 380,
    "\u2581number": 381,
    "T": 382,
    "\u2581during": 383,
    "\u2581family": 384,
    "\u2581little": 385,
    "\u2581three": 386,
    "\u2581water": 387,
    "\u2581man": 388,
    "\u2581An": 389,
    "based": 390,
    "\u2581R": 391,
    "\u2581sau": 392,
    "\u2581avec": 393,
    "\u2581better": 394,
    "\u2581\u201e": 395,
    "\u2581too": 396,
    "ge": 397,
    "\u2581must": 398,
    "\u2581per": 399,
    "ele": 400,
    "\u2581oder": 401,
    "au": 402,
    "\u2581aus": 403,
    "\u2581werden": 404,
    "\u2581does": 405,
    "\u2581without": 406,
    "\u2581ou": 407,
    "\u2581design": 408,
    "\u2581va": 409,
    "\u2581did": 410,
    "\u2581O": 411,
    "\u2581U": 412,
    "up": 413,
    "\u2581end": 414,
    "\u2581local": 415,
    "\u2581next": 416,
    "\u2581sure": 417,
    "\u2581lot": 418,
    "\u2581Re": 419,
    "\u2581top": 420,
    "\u2581Our": 421,
    "\u2581small": 422,
    "\u2581full": 423,
    "\u2581something": 424,
    "ung": 425,
    "\u2581vor": 426,
    "E": 427,
    "\u2581give": 428,
    "\u2581might": 429,
    "\u2581another": 430,
    "\u25816": 431,
    "\u2581All": 432,
    "\u2581process": 433,
    "L": 434,
    "\u2581found": 435,
    "\u2581sind": 436,
    "\u2581since": 437,
    "\u2581With": 438,
    "K": 439,
    "um": 440,
    "\u2581within": 441,
    "\u2581post": 442,
    "\u2581car": 443,
    "une": 444,
    "\u2581N": 445,
    "\u2581J": 446,
    "ic": 447,
    "R": 448,
    "ter": 449,
    "ur": 450,
    "\u2581She": 451,
    "\u2581public": 452,
    "\u2581keep": 453,
    "\u2581H": 454,
    "\u2581order": 455,
    "\u2581start": 456,
    "ez": 457,
    "\u2581\u2018": 458,
    "uri": 459,
    "\u258120": 460,
    "\u2581On": 461,
    "\u2581offer": 462,
    "\u2581quality": 463,
    "\u2581working": 464,
    "\u2581No": 465,
    "\u2581That": 466,
    "\u2581game": 467,
    "\u2581bei": 468,
    "\u2581today": 469,
    "\u2581never": 470,
    "\u2581week": 471,
    "\u2581St": 472,
    "\u2581feel": 473,
    "\u2581put": 474,
    "\u2581website": 475,
    "Y": 476,
    "\u2581days": 477,
    "\u2581program": 478,
    "\u2581looking": 479,
    "\u2581K": 480,
    "\u2581students": 481,
    "\u2581create": 482,
    "\u2581change": 483,
    "\u2581book": 484,
    "ity": 485,
    "\u2581At": 486,
    "\u2581possible": 487,
    "\u2581sunt": 488,
    "\u25817": 489,
    "\u2581real": 490,
    "\u2581al": 491,
    "\u2581making": 492,
    "\u2581Be": 493,
    "\u2581products": 494,
    "\u2581case": 495,
    "\u2581school": 496,
    "\u2581say": 497,
    "area": 498,
    "\u2581My": 499,
    "\u2581point": 500,
    "\u2581als": 501,
    "\u2581children": 502,
    "\u2581course": 503,
    "\u2581show": 504,
    "\u25818": 505,
    "\u2581These": 506,
    "\u258118": 507,
    "\u2581large": 508,
    "co": 509,
    "\u2581\u00fcber": 510,
    "\u2581second": 511,
    "\u2581market": 512,
    "\u2581fost": 513,
    "\u2581easy": 514,
    "\u2581plan": 515,
    "\u2581project": 516,
    "G": 517,
    "W": 518,
    "3": 519,
    "\u2581son": 520,
    "la": 521,
    "\u2581face": 522,
    "\u2581needs": 523,
    "ch": 524,
    "\u2581personal": 525,
    "me": 526,
    "\u2581sont": 527,
    "\u2581je": 528,
    "\u2581non": 529,
    "\u2581got": 530,
    "\u2581Do": 531,
    "the": 532,
    "\u2581health": 533,
    "\u2581special": 534,
    ".\"": 535,
    "1": 536,
    "den": 537,
    "\u2581state": 538,
    "\u2581open": 539,
    "\u2581money": 540,
    "\u2581again": 541,
    "\u2581food": 542,
    "\u2581page": 543,
    "\u2581together": 544,
    "age": 545,
    "\u2581qu": 546,
    "hat": 547,
    "\u2581ver": 548,
    "\u2581W": 549,
    "\u2581away": 550,
    "\u2581wird": 551,
    "\u2581until": 552,
    "V": 553,
    "\u2581pre": 554,
    "\u2581One": 555,
    "\u2581product": 556,
    "\u2581often": 557,
    "\u2581wir": 558,
    "\u2581nach": 559,
    "\u2581include": 560,
    "\u2581um": 561,
    "\u2581room": 562,
    "\u2581group": 563,
    "\u2581name": 564,
    "ce": 565,
    "H": 566,
    "N": 567,
    "\u2581person": 568,
    "\u2581social": 569,
    "\u2581list": 570,
    "\u2581How": 571,
    "\u2581why": 572,
    "\u2581community": 573,
    "\u2581contact": 574,
    "\u00ad": 575,
    "\u2581co": 576,
    "\u2581play": 577,
    "\u2581having": 578,
    "\u2581power": 579,
    "\u2581call": 580,
    "\u2581against": 581,
    "\u2581become": 582,
    "\u2581cost": 583,
    "\u2581V": 584,
    "\u2581research": 585,
    "\u258112": 586,
    "\u2581wie": 587,
    "der": 588,
    "\u2581thing": 589,
    "\u2581along": 590,
    "4": 591,
    "\u2581access": 592,
    "\u2581level": 593,
    "\u2581price": 594,
    "\u2581einen": 595,
    "\u2581side": 596,
    "\u2581Un": 597,
    "\u2581means": 598,
    "(": 599,
    "\u2581big": 600,
    "\u2581God": 601,
    "\u2581dass": 602,
    "im": 603,
    "\u258130": 604,
    "\u2581event": 605,
    "\u2581development": 606,
    "\u2581form": 607,
    "\u2581read": 608,
    "\u2581hand": 609,
    "\u2581control": 610,
    "\u2581However": 611,
    "\u2581done": 612,
    "\u2581job": 613,
    "\u2581hard": 614,
    "\u2581war": 615,
    "\u2581area": 616,
    "\u2581add": 617,
    "\u2581votre": 618,
    "\u2581live": 619,
    "\u2581range": 620,
    "\u2581After": 621,
    "\u2581Les": 622,
    "\u2581far": 623,
    "ver": 624,
    "\u2581old": 625,
    "\u2581perfect": 626,
    "\u258115": 627,
    "\u2581space": 628,
    "\u2581house": 629,
    "ine": 630,
    "\u2581enough": 631,
    "0": 632,
    "\u2581several": 633,
    "The": 634,
    "mm": 635,
    "\u2581University": 636,
    "\u2581diese": 637,
    "\u2581Co": 638,
    "\u2581comes": 639,
    "\u2581across": 640,
    "\u2581already": 641,
    ",\u201d": 642,
    "\u2581body": 643,
    "\u2581Das": 644,
    "\u2581einer": 645,
    "\u2581left": 646,
    "\u2581future": 647,
    "\u2581times": 648,
    "\u2581dar": 649,
    "\u2581simple": 650,
    "ry": 651,
    "\u2581getting": 652,
    "\u2581try": 653,
    "\u021bi": 654,
    "ness": 655,
    "\u2581makes": 656,
    "\u2581past": 657,
    "ca": 658,
    "\u2581light": 659,
    "\u2581Der": 660,
    "\u2581run": 661,
    "\u2581four": 662,
    "ance": 663,
    "\u2581ever": 664,
    "\u2581einem": 665,
    "\u2581below": 666,
    "O": 667,
    "\u25819": 668,
    "\u2581learn": 669,
    "out": 670,
    "\u2581video": 671,
    "\u2581etc": 672,
    "\u2581\u00ab": 673,
    "\u2581zum": 674,
    "\u2581kann": 675,
    "\u2581minutes": 676,
    "\u2581example": 677,
    "\u2581nous": 678,
    "\u2581Se": 679,
    "\u2581sie": 680,
    "\u2581industry": 681,
    "\u2581problem": 682,
    "J": 683,
    "\u2581country": 684,
    "\u2581fact": 685,
    "\u2581type": 686,
    "ner": 687,
    "\u2581companies": 688,
    "\u2581line": 689,
    "\u2581city": 690,
    "\u2581check": 691,
    "\u2581doing": 692,
    "elle": 693,
    "\u2581fun": 694,
    "\u2581En": 695,
    "\u2581Your": 696,
    "ling": 697,
    "\u2581share": 698,
    "ile": 699,
    "\u2581actually": 700,
    "\u2581value": 701,
    "zi": 702,
    "\u2581ab": 703,
    "\u2581offers": 704,
    "\u2581less": 705,
    "\u2581night": 706,
    "\u2581Dr": 707,
    "\u2581started": 708,
    "\u2581least": 709,
    "\u2581short": 710,
    "\u2581main": 711,
    "\u2581single": 712,
    "\u2581though": 713,
    "\u2581prin": 714,
    "time": 715,
    "\u2581hours": 716,
    "\u2581others": 717,
    "\u2581called": 718,
    "\u2581visit": 719,
    "\u2581bit": 720,
    "\u00e9e": 721,
    "\u2581customers": 722,
    "\u2581music": 723,
    "\u2581members": 724,
    "ies": 725,
    "\u2581pay": 726,
    "nd": 727,
    "\u2581once": 728,
    "gen": 729,
    "\u2581k\u00f6nnen": 730,
    "\u2581low": 731,
    "\u2581durch": 732,
    "\u2581story": 733,
    "\u2581understand": 734,
    "\u201c": 735,
    "\u2581Am": 736,
    "\u2581didn": 737,
    "\u2581content": 738,
    "son": 739,
    "\u2581building": 740,
    "\u2581result": 741,
    "\u2581aux": 742,
    "\u2581complete": 743,
    "\u2581doesn": 744,
    "\u2581haben": 745,
    "\u2581questions": 746,
    "line": 747,
    "\u2581technology": 748,
    "\u2581Pro": 749,
    "\u2581current": 750,
    "\u2581won": 751,
    "\u2581let": 752,
    "\u2581features": 753,
    "\u2581please": 754,
    "5": 755,
    "\u2581above": 756,
    "ive": 757,
    "\u2581management": 758,
    "\u2581lui": 759,
    "her": 760,
    "\u2581training": 761,
    "\u2581everything": 762,
    "\u2581noch": 763,
    "\u2581came": 764,
    "\u2581web": 765,
    "\u2581ensure": 766,
    "\u2581months": 767,
    "\u2581art": 768,
    "\u2581sub": 769,
    "\u2581million": 770,
    "\u2581professional": 771,
    "\u2581results": 772,
    "\u2581kind": 773,
    "\u2581season": 774,
    "\u2581unique": 775,
    "ze": 776,
    "\u2581enjoy": 777,
    "\u2581early": 778,
    "\u2581major": 779,
    "\u2581yet": 780,
    "\u2581Ver": 781,
    "one": 782,
    "\u2581media": 783,
    "\u2581[": 784,
    "\u2581property": 785,
    "\u2581beautiful": 786,
    "\u2581given": 787,
    "\u2581due": 788,
    "\u2581government": 789,
    "\u2581nur": 790,
    "\u2581email": 791,
    "\u2581total": 792,
    "\u2581natural": 793,
    "\u2581test": 794,
    "\u2581provides": 795,
    "\u2581various": 796,
    "\u2581American": 797,
    "\u2581moment": 798,
    "\u2581air": 799,
    "\u2581idea": 800,
    "\u2581known": 801,
    "\u2581Il": 802,
    "\u2581friends": 803,
    "\u2581final": 804,
    "\u2581buy": 805,
    "\u2581specific": 806,
    "\u2581issues": 807,
    "\u2581took": 808,
    "\u2581mind": 809,
    "\u2581study": 810,
    "\u2581addition": 811,
    "\u2581size": 812,
    "\u2581pro": 813,
    "\u2581film": 814,
    "\u2581pot": 815,
    "\u2581thought": 816,
    "\u2581tell": 817,
    "\u2581While": 818,
    "\u2581head": 819,
    "\u2581clients": 820,
    "\u2581performance": 821,
    "\u2581question": 822,
    "\u2581whether": 823,
    "\u2581certain": 824,
    "\u2581model": 825,
    "\u2581following": 826,
    "\u2581energy": 827,
    "\u2581office": 828,
    "\u2581whole": 829,
    "\u2581bring": 830,
    "\u2581required": 831,
    "\u0163i": 832,
    "\u2581date": 833,
    "_": 834,
    "que": 835,
    "\u2581da": 836,
    "\u2581US": 837,
    "\u2581taking": 838,
    "go": 839,
    "\u2581living": 840,
    "\u2581someone": 841,
    "\u2581heart": 842,
    "\u2581key": 843,
    "\u2581areas": 844,
    "\u2581says": 845,
    "\u25812018": 846,
    "\u2581month": 847,
    "\u2581Er": 848,
    "ste": 849,
    "\u258111": 850,
    "\u2581front": 851,
    "\u2581Now": 852,
    "\u2581class": 853,
    "\u2581choose": 854,
    "pe": 855,
    "\u2581further": 856,
    "\u2581believe": 857,
    "of": 858,
    "\u2581among": 859,
    "sch": 860,
    "\u2581child": 861,
    "\u2581aber": 862,
    "\u2581Please": 863,
    "rea": 864,
    "\u2581later": 865,
    "\u2581amount": 866,
    "ice": 867,
    "\u2581National": 868,
    "\u2581style": 869,
    "\u2581tout": 870,
    "\u2581staff": 871,
    "\u2581white": 872,
    "\u2581ge": 873,
    "\u2581five": 874,
    "\u2581blog": 875,
    "\u2581designed": 876,
    "\u2581went": 877,
    "\u2581Da": 878,
    "\u2581general": 879,
    "\u2581rest": 880,
    "\u2581zur": 881,
    "\u2581quite": 882,
    "per": 883,
    "\u2581customer": 884,
    "\u2581close": 885,
    "\u2581Some": 886,
    "\u2581women": 887,
    "\u2581move": 888,
    "\u2581software": 889,
    "\u2581Ein": 890,
    "\u2581Ab": 891,
    "\u2581history": 892,
    "\u2581either": 893,
    "\u2581seen": 894,
    "\u2581card": 895,
    "\u2581City": 896,
    "\u2581hope": 897,
    "\u258116": 898,
    "\u00e9s": 899,
    "va": 900,
    "\u2581Al": 901,
    "\u2581especially": 902,
    "\u2581view": 903,
    "men": 904,
    "\u2581account": 905,
    "\u2581needed": 906,
    "\u2581United": 907,
    "]": 908,
    "\u2581yourself": 909,
    "\u2581100": 910,
    "\u2581receive": 911,
    "\u2581ideas": 912,
    "\u2581writing": 913,
    "\u2581simply": 914,
    "\u2581present": 915,
    "\u2581continue": 916,
    "\u2581application": 917,
    "\u2581build": 918,
    "\u2581turn": 919,
    "ated": 920,
    "\u2581everyone": 921,
    "cette": 922,
    "\u2581bien": 923,
    "less": 924,
    "\u2581Si": 925,
    "\u2581original": 926,
    "8": 927,
    "\u2581individual": 928,
    "tre": 929,
    "\u2581works": 930,
    "\u2581options": 931,
    "\u2581May": 932,
    "\u2581Not": 933,
    "\u2581report": 934,
    "mer": 935,
    "\u2581human": 936,
    "\u2581provided": 937,
    "\u2581By": 938,
    "\u2581series": 939,
    "7": 940,
    "\u2581modern": 941,
    "\u2581meet": 942,
    "\u258150": 943,
    "\u258125": 944,
    "\u2581color": 945,
    "\u2581download": 946,
    "\u2581Here": 947,
    "6": 948,
    "\u2581poate": 949,
    "\u2581\u00cen": 950,
    "\u2581phone": 951,
    "\u2581likely": 952,
    "\u2581table": 953,
    "\u2581ma": 954,
    "\u2581Or": 955,
    "Z": 956,
    "\u258119": 957,
    "\u2581insurance": 958,
    "\u2581anything": 959,
    "\u2581search": 960,
    "\u2581Ge": 961,
    "\u2581issue": 962,
    "\u2581includes": 963,
    "\u2581clear": 964,
    "les": 965,
    "\u2581almost": 966,
    "ilor": 967,
    "\u258114": 968,
    "by": 969,
    "\u2581Du": 970,
    "\u2581mais": 971,
    "ier": 972,
    "\u2581law": 973,
    "\u2581added": 974,
    "\u2581con": 975,
    ",\"": 976,
    "\u2581ago": 977,
    "\u2581His": 978,
    "\u2581points": 979,
    "\u2581mult": 980,
    "\u2581financial": 981,
    "\u2581problems": 982,
    "\u2581however": 983,
    "\u2581events": 984,
    "\u2581half": 985,
    "ard": 986,
    "\u2581ask": 987,
    "\u2581version": 988,
    "end": 989,
    "\u2581created": 990,
    "\u2581lead": 991,
    "\u2581focus": 992,
    "\u2581increase": 993,
    "ex": 994,
    "\u2581allow": 995,
    "\u2581extra": 996,
    "\u258124": 997,
    "\u2581credit": 998,
    "\u2581production": 999,
    "zu": 1000,
    "\u2581black": 1001,
    "\u2581systems": 1002,
    "\u258117": 1003,
    "\u2581opportunity": 1004,
    "\u2581bis": 1005,
    "\u2581fast": 1006,
    "ring": 1007,
    "\u2581Don": 1008,
    "\u2581via": 1009,
    "fer": 1010,
    "\u2581comme": 1011,
    "\u2581popular": 1012,
    "\u2581South": 1013,
    "ating": 1014,
    "\u2581State": 1015,
    "ator": 1016,
    "\u2581common": 1017,
    "con": 1018,
    "\u2581throughout": 1019,
    "\u2581risk": 1020,
    "\u2581young": 1021,
    "\u2581Je": 1022,
    "\u2581image": 1023,
    "ha": 1024,
    "\u2581third": 1025,
    "\u2581taken": 1026,
    "\u2581Z": 1027,
    "\u2581dis": 1028,
    "\u2581From": 1029,
    "\u2581details": 1030,
    "\u2581games": 1031,
    "\u2581practice": 1032,
    "che": 1033,
    "\u2581security": 1034,
    "\u2581medical": 1035,
    "\u2581learning": 1036,
    "\u2581material": 1037,
    "\u2581international": 1038,
    "\u2581forward": 1039,
    "\u2581paper": 1040,
    "\u2581action": 1041,
    "\u2581file": 1042,
    "\u2581oil": 1043,
    "\u2581self": 1044,
    "\u2581private": 1045,
    "\u2581interest": 1046,
    "bar": 1047,
    "\u2581sale": 1048,
    "\u2581stay": 1049,
    "ke": 1050,
    "\u2581San": 1051,
    "\u2581matter": 1052,
    "\u2581reason": 1053,
    "ted": 1054,
    "\u2581potential": 1055,
    "\u2581brand": 1056,
    "\u2581field": 1057,
    "\u2581treatment": 1058,
    "\u2581period": 1059,
    "\u2581York": 1060,
    "\u2581Park": 1061,
    "\u2581acest": 1062,
    "ou": 1063,
    "\u2581Ce": 1064,
    "\u2581ready": 1065,
    "\u2581rather": 1066,
    "\u2581outside": 1067,
    "\u2581standard": 1068,
    "\u2581located": 1069,
    "\u2581marketing": 1070,
    "cu": 1071,
    "\u2581Can": 1072,
    "\u2581education": 1073,
    "use": 1074,
    "\u2581role": 1075,
    "\u2581men": 1076,
    "\u2581probably": 1077,
    "\u2581store": 1078,
    "\u2581John": 1079,
    "\u2581rate": 1080,
    "\u2581code": 1081,
    "\u2581kids": 1082,
    "\u2581currently": 1083,
    "\u2581near": 1084,
    "\u2581sales": 1085,
    "\u2581usually": 1086,
    "\u2581activities": 1087,
    "\u2581party": 1088,
    "\u2581leur": 1089,
    "\u2581particular": 1090,
    "\u2581mehr": 1091,
    "ill": 1092,
    "\u2581percent": 1093,
    "\u2581fait": 1094,
    "\u2581happy": 1095,
    "\u2581inside": 1096,
    "\u2581save": 1097,
    "\u2581skills": 1098,
    "\u2581consider": 1099,
    "\u2581recent": 1100,
    "\u2581strong": 1101,
    "\u2581position": 1102,
    "\u2581knowledge": 1103,
    "\u2581tax": 1104,
    "\u2581users": 1105,
    "und": 1106,
    "\u2581coming": 1107,
    "\u2581article": 1108,
    "min": 1109,
    "\u2581sein": 1110,
    "\u2581travel": 1111,
    "\u2581changes": 1112,
    "\u2581impact": 1113,
    "\u2581wanted": 1114,
    "\u2581address": 1115,
    "\u2581soon": 1116,
    "\u2581North": 1117,
    "at\u0103": 1118,
    "\u2581trying": 1119,
    "\u2581app": 1120,
    "\u2581School": 1121,
    "\u2581Es": 1122,
    "we": 1123,
    "\u2581conditions": 1124,
    "\u2581digital": 1125,
    "\u2581similar": 1126,
    "\u2581solution": 1127,
    "\u2581location": 1128,
    "\u2581Of": 1129,
    "\u2581follow": 1130,
    "\u2581red": 1131,
    "\u2581review": 1132,
    "\u2581skin": 1133,
    "\u2581pretty": 1134,
    "day": 1135,
    "\u2581d\u00e9": 1136,
    "\u2581cause": 1137,
    "\u2581Sa": 1138,
    "\u2581user": 1139,
    "\u2581Man": 1140,
    "\u201d.": 1141,
    "\u2581Just": 1142,
    "\u2581faire": 1143,
    "\u2581member": 1144,
    "\u2581iar": 1145,
    "\u2581higher": 1146,
    "\u2581step": 1147,
    "\u2581wide": 1148,
    "\u2581uns": 1149,
    "\u2581World": 1150,
    "\u2581additional": 1151,
    "ber": 1152,
    "\u2581easily": 1153,
    "\u2581deal": 1154,
    "\u2581ways": 1155,
    "\u2581mobile": 1156,
    "\u2581national": 1157,
    "\u2581couple": 1158,
    "\u2581ihre": 1159,
    "\u2581choice": 1160,
    "for": 1161,
    "ous": 1162,
    "\u2581Google": 1163,
    "\u2581environment": 1164,
    "urile": 1165,
    "\u2581Center": 1166,
    "mp": 1167,
    "\u2581\u00bb": 1168,
    "qui": 1169,
    "\u2581growth": 1170,
    "ler": 1171,
    "\u2581improve": 1172,
    "\u2581items": 1173,
    "\u2581Nu": 1174,
    "\u2581leave": 1175,
    "\u2581true": 1176,
    "\u2581wurde": 1177,
    "\u2581cannot": 1178,
    "\u258113": 1179,
    "\u2581running": 1180,
    "\u2581anti": 1181,
    "\u2581option": 1182,
    "\u2581reading": 1183,
    "\u2581Car": 1184,
    "\u2581Wir": 1185,
    "\u2581April": 1186,
    "\u2581behind": 1187,
    "\u2581client": 1188,
    "\u2581cover": 1189,
    "\u2581stop": 1190,
    "ja": 1191,
    "\u2581built": 1192,
    "\u2581Con": 1193,
    "ement": 1194,
    "\u2581projects": 1195,
    "\u2581variety": 1196,
    "\u2581Ihre": 1197,
    "\u0219": 1198,
    "\u2581unter": 1199,
    "\u2581longer": 1200,
    "year": 1201,
    "\u2581photo": 1202,
    "\u2581Also": 1203,
    "\u2581received": 1204,
    "\u2581return": 1205,
    "00": 1206,
    "\u2581bar": 1207,
    "ary": 1208,
    "elor": 1209,
    "\u2581Home": 1210,
    "our": 1211,
    "\u2581Me": 1212,
    "\u2581held": 1213,
    "\u2581click": 1214,
    "\u2581ex": 1215,
    "\u2581cum": 1216,
    "\u2581takes": 1217,
    "\u2581computer": 1218,
    "\u2581told": 1219,
    "+": 1220,
    "\u2581patients": 1221,
    "ting": 1222,
    "\u2581direct": 1223,
    "\u2581quickly": 1224,
    "tic": 1225,
    "\u2581vom": 1226,
    "\u2581di": 1227,
    "\u2581kitchen": 1228,
    "\u2581network": 1229,
    "\u25812015": 1230,
    "\u2581effective": 1231,
    "\u2581collection": 1232,
    "\u25812017": 1233,
    "\u2581words": 1234,
    "\u2581cele": 1235,
    "\u2581student": 1236,
    "\u2581amazing": 1237,
    "eur": 1238,
    ".\u201d": 1239,
    "\u2581ale": 1240,
    "\u201d,": 1241,
    "\u2581purchase": 1242,
    "\u2581mean": 1243,
    "\u2581West": 1244,
    "\u2581nice": 1245,
    "\u2581age": 1246,
    "\u2581base": 1247,
    "\u2581summer": 1248,
    "\u2581multi": 1249,
    "\u2581allows": 1250,
    "\u2581latest": 1251,
    "\u2581global": 1252,
    "\u2581chance": 1253,
    "\u2581sense": 1254,
    "ieren": 1255,
    "\u2581difficult": 1256,
    "it\u00e9": 1257,
    "ka": 1258,
    "du": 1259,
    "\u2581providing": 1260,
    "\u2581Art": 1261,
    "\u2581drive": 1262,
    "\u2581Go": 1263,
    "\u2581tr\u00e8s": 1264,
    "U": 1265,
    "\u2581Pre": 1266,
    "\u2581shows": 1267,
    "\u2581hair": 1268,
    "\u2581success": 1269,
    "\u2581UK": 1270,
    "red": 1271,
    "\u00fc": 1272,
    "ish": 1273,
    "\u2581weeks": 1274,
    "\u2581solutions": 1275,
    "\u2581Pe": 1276,
    "\u2581equipment": 1277,
    "\u0219i": 1278,
    "\u2581worked": 1279,
    "\".": 1280,
    "\u2581legal": 1281,
    "\u2581bad": 1282,
    "\u258140": 1283,
    "\u2581Internet": 1284,
    "\u2581included": 1285,
    "\u2581upon": 1286,
    "\u2581excellent": 1287,
    "\u2581goal": 1288,
    "\u2581El": 1289,
    "\u2581Mo": 1290,
    "\u2581policy": 1291,
    "\u2581aussi": 1292,
    "\u2581weight": 1293,
    "ici": 1294,
    "\u2581approach": 1295,
    "\u2581six": 1296,
    "\u2581entire": 1297,
    "9": 1298,
    "\u2581send": 1299,
    "\u25811.": 1300,
    "\u2581wenn": 1301,
    "\u2581photos": 1302,
    "://": 1303,
    "ger": 1304,
    "\u2581favorite": 1305,
    "ley": 1306,
    "\u2581else": 1307,
    "\u2581types": 1308,
    "\u2581link": 1309,
    "\u2581recently": 1310,
    "\u2581Mit": 1311,
    "\u2581hot": 1312,
    "tra": 1313,
    "\u015f": 1314,
    "\u2581according": 1315,
    "\u2581necessary": 1316,
    "\u2581multiple": 1317,
    "\u2581Im": 1318,
    "\u2581sehr": 1319,
    "\u2581sign": 1320,
    "\u2581anyone": 1321,
    "\u2581land": 1322,
    "\u2581States": 1323,
    "\u2581unsere": 1324,
    "\u00e9es": 1325,
    "We": 1326,
    "\u2581nothing": 1327,
    "\u2581commercial": 1328,
    "ful": 1329,
    "\u2581seems": 1330,
    "\u2581International": 1331,
    "\u2581March": 1332,
    "\u2581Thanks": 1333,
    "\u2581County": 1334,
    "\u2581books": 1335,
    "\u2581Ca": 1336,
    "\u2581mi": 1337,
    "\u2581meeting": 1338,
    "\u2581tools": 1339,
    "\u2581cut": 1340,
    "\u2581related": 1341,
    "\u2581lives": 1342,
    "way": 1343,
    "\u2581develop": 1344,
    "\u2581sound": 1345,
    "\u2581safe": 1346,
    "\u2581Her": 1347,
    "\u2581average": 1348,
    "\u2581clean": 1349,
    "\u2581talk": 1350,
    "\u2581peut": 1351,
    "\u2581dann": 1352,
    "\u2581terms": 1353,
    "\u2581foarte": 1354,
    "\u2581super": 1355,
    "\u2581programs": 1356,
    "\u2581decision": 1357,
    "\u2581costs": 1358,
    "\u2581\u00eatre": 1359,
    "\u25812019": 1360,
    "led": 1361,
    "\u2581parents": 1362,
    "\u2581Mr": 1363,
    "\u2581lower": 1364,
    "\u2581door": 1365,
    "\u2581\u00e9t\u00e9": 1366,
    "\u2581box": 1367,
    "\u2581record": 1368,
    "\u2581win": 1369,
    "ster": 1370,
    "\u2581America": 1371,
    "\u2581immer": 1372,
    "\u2581road": 1373,
    "\u2581leading": 1374,
    "\u2581section": 1375,
    "\u2581Facebook": 1376,
    "\u2581Most": 1377,
    "iert": 1378,
    "\u2581morning": 1379,
    "\u2581asked": 1380,
    "\u2581involved": 1381,
    "\u2581hier": 1382,
    "\u2581images": 1383,
    "\u2581House": 1384,
    "\u2581highly": 1385,
    "\u2581Bar": 1386,
    "\u2581Service": 1387,
    "\u2581attention": 1388,
    "\u2581normal": 1389,
    "\u2581plans": 1390,
    "\u2581source": 1391,
    "\u2581Aus": 1392,
    "\u2581benefits": 1393,
    "\u2581ses": 1394,
    "des": 1395,
    "\u2581internet": 1396,
    "\u2581materials": 1397,
    "\u2581m\u00eame": 1398,
    "\u2581fine": 1399,
    "\u2581fit": 1400,
    "\u258121": 1401,
    "\u2581itself": 1402,
    "\u2581wieder": 1403,
    "\u2581Many": 1404,
    "\u2581nature": 1405,
    "\u2581pain": 1406,
    "\u2581device": 1407,
    "art": 1408,
    "pro": 1409,
    "\u2581France": 1410,
    "lich": 1411,
    "\u25812014": 1412,
    "\u2581inter": 1413,
    "\u2581Li": 1414,
    "\u2581career": 1415,
    "\u2581looks": 1416,
    "\u2581r\u00e9": 1417,
    "\u2581ability": 1418,
    "\u2581situation": 1419,
    "ville": 1420,
    "\u25812016": 1421,
    "tes": 1422,
    "\u2581remember": 1423,
    "\u2581TV": 1424,
    "\u2581levels": 1425,
    "\u2581subject": 1426,
    "ally": 1427,
    "\u2581reduce": 1428,
    "\u2581*": 1429,
    "\u2581Day": 1430,
    "\u2581write": 1431,
    "\u2581pick": 1432,
    "ence": 1433,
    "\u2581fresh": 1434,
    "\u2581traditional": 1435,
    "chi": 1436,
    "\u2581machine": 1437,
    "\u2581resources": 1438,
    "\u00e2": 1439,
    "\u2581countries": 1440,
    "\u2581Even": 1441,
    "\u2581green": 1442,
    "\u2581Free": 1443,
    "\u2581daily": 1444,
    "\u2581respect": 1445,
    "\u2581instead": 1446,
    "\u2581Once": 1447,
    "\u2581word": 1448,
    "\u2581construction": 1449,
    "\u2581huge": 1450,
    "\u2581feature": 1451,
    "\u2581themselves": 1452,
    "\u2581loss": 1453,
    "%": 1454,
    "\u2581safety": 1455,
    "\u2581economic": 1456,
    "\u2581require": 1457,
    "30": 1458,
    "\u2581planning": 1459,
    "\u2581mal": 1460,
    "\u2581directly": 1461,
    "ure": 1462,
    "\u2581track": 1463,
    "\u2581tool": 1464,
    "\u2581positive": 1465,
    "\u2581piece": 1466,
    "\u2581parts": 1467,
    "ang": 1468,
    "\u2581trip": 1469,
    "\u2581organization": 1470,
    "\u2581sites": 1471,
    "\u2581fire": 1472,
    "\u2581China": 1473,
    "\u2581Pour": 1474,
    "\u2581plant": 1475,
    "\u2581board": 1476,
    "\u2581interesting": 1477,
    "gar": 1478,
    "\u2581fie": 1479,
    "\u2581late": 1480,
    "\u2581wall": 1481,
    "\u2581walk": 1482,
    "ham": 1483,
    "\u2581Ne": 1484,
    "\u2581First": 1485,
    "\u2581double": 1486,
    "\u2581budget": 1487,
    "\u2581cases": 1488,
    "cal": 1489,
    "old": 1490,
    "\u2581Bo": 1491,
    "\u2581spend": 1492,
    "port": 1493,
    "\u2581worth": 1494,
    "ique": 1495,
    "nes": 1496,
    "cul": 1497,
    "era": 1498,
    "\u2581text": 1499,
    "\u2581decided": 1500,
    "\u2581floor": 1501,
    "\u2581requirements": 1502,
    "\u2581cel": 1503,
    "\u2581effect": 1504,
    "\u2581gibt": 1505,
    "\u2581news": 1506,
    "\u2581vos": 1507,
    "\u2581players": 1508,
    "\u2581saw": 1509,
    "\u2581auto": 1510,
    "\u2581town": 1511,
    "\u2581myself": 1512,
    "\u2581lost": 1513,
    "\u2581$": 1514,
    "\u2581June": 1515,
    "\u2581significant": 1516,
    "\u2581giving": 1517,
    "\u2581stand": 1518,
    "\u2581stock": 1519,
    "\u2581hold": 1520,
    "\u2581Are": 1521,
    "\u2581shall": 1522,
    "\u2581ideal": 1523,
    "\u2581London": 1524,
    "\u2581answer": 1525,
    "\u2581Vor": 1526,
    "\u2581gives": 1527,
    "ative": 1528,
    "\u2581timp": 1529,
    "\u2581center": 1530,
    "\u2581Group": 1531,
    "\u2581sans": 1532,
    "\u2581Ar": 1533,
    "\u2581Ma": 1534,
    "\u2581reach": 1535,
    "ren": 1536,
    "\u2581More": 1537,
    "mit": 1538,
    "\u2581guide": 1539,
    "\u2581fully": 1540,
    "\u2581Since": 1541,
    "\u2581Inc": 1542,
    "\u2581culture": 1543,
    "eat": 1544,
    "\u2581written": 1545,
    "\u2581Ho": 1546,
    "\u2581India": 1547,
    "\u2581Well": 1548,
    "back": 1549,
    "\u2581goes": 1550,
    "\u2581completely": 1551,
    "\u2581tour": 1552,
    "\u2581began": 1553,
    "\u2581picture": 1554,
    "\u2581mare": 1555,
    "\u2581playing": 1556,
    "\u2581trebuie": 1557,
    "ils": 1558,
    "chen": 1559,
    "\u2581hit": 1560,
    "\u2581complex": 1561,
    "\u2581Thank": 1562,
    "\u2581Let": 1563,
    "\u2581applications": 1564,
    "\u2581friend": 1565,
    "\u2581English": 1566,
    "\u2581charge": 1567,
    "\u2581recommend": 1568,
    "\u2581message": 1569,
    "In": 1570,
    "\u2581Mar": 1571,
    "pp": 1572,
    "\u2581method": 1573,
    "\u2581successful": 1574,
    "tion": 1575,
    "\u2581release": 1576,
    "\u2581creating": 1577,
    "\u2581despre": 1578,
    "esc": 1579,
    "\u2581eye": 1580,
    "\u2581apply": 1581,
    "net": 1582,
    "side": 1583,
    "\u2581ar": 1584,
    "\u2581platform": 1585,
    "\u2581touch": 1586,
    "\u2581towards": 1587,
    "\u2581match": 1588,
    "\u2581Black": 1589,
    "\u2581fall": 1590,
    "\u2581ground": 1591,
    "\u2581High": 1592,
    "\u2581Q": 1593,
    "\u2581schon": 1594,
    "\u2581hotel": 1595,
    "\u2581prices": 1596,
    "\u2581developed": 1597,
    "uk": 1598,
    "ide": 1599,
    "\u2581September": 1600,
    "ized": 1601,
    "\u2581War": 1602,
    "!!": 1603,
    "\u2581grow": 1604,
    "\u2581watch": 1605,
    "\u2581storage": 1606,
    "eau": 1607,
    "can": 1608,
    "\u2581Get": 1609,
    "\u2581See": 1610,
    "\u2581European": 1611,
    "\u2581language": 1612,
    "eaz\u0103": 1613,
    "\u2581court": 1614,
    "\u2581Why": 1615,
    "\u2581hear": 1616,
    "\u2581doar": 1617,
    "lan": 1618,
    "\u2581Christmas": 1619,
    "\u2581Web": 1620,
    "vo": 1621,
    "\u2581sent": 1622,
    "\u2581businesses": 1623,
    "\u2581Red": 1624,
    "tel": 1625,
    "\u2581Ha": 1626,
    "\u2581wonderful": 1627,
    "ations": 1628,
    "za": 1629,
    "\u258122": 1630,
    "\u2581thinking": 1631,
    "\u2581became": 1632,
    "\u2581cool": 1633,
    "\u2581speed": 1634,
    "mar": 1635,
    "\u2581--": 1636,
    "\u2581groups": 1637,
    "\u2581interested": 1638,
    "ak": 1639,
    "\u258160": 1640,
    "\u2581screen": 1641,
    "\u2581Design": 1642,
    "\u2581limited": 1643,
    "\u2581expected": 1644,
    "\u2581opportunities": 1645,
    "\u2581regular": 1646,
    "off": 1647,
    "\u2581Best": 1648,
    "Re": 1649,
    "\u2581ihr": 1650,
    "\u2581Great": 1651,
    "\u2581employees": 1652,
    "\u2581custom": 1653,
    "\u2581multe": 1654,
    "let": 1655,
    "\u2581benefit": 1656,
    "\u2581term": 1657,
    "\u2581bine": 1658,
    "\u2581deep": 1659,
    "\u2581August": 1660,
    "\u2581President": 1661,
    "\u2581Auf": 1662,
    "\u2581wish": 1663,
    "\u2581sometimes": 1664,
    "ari": 1665,
    "\u2581pressure": 1666,
    "\u2581ani": 1667,
    "\u2581trade": 1668,
    "\u2581firm": 1669,
    "\u2581comment": 1670,
    "\u2581November": 1671,
    "\u2581expect": 1672,
    "\u25812012": 1673,
    "\u2581Ich": 1674,
    "\u2581relationship": 1675,
    "\u2581active": 1676,
    "org": 1677,
    "\u2581heat": 1678,
    "\u2581wood": 1679,
    "\u2581notre": 1680,
    "\u2581function": 1681,
    "\u25812.": 1682,
    "\u2581wedding": 1683,
    "\u2581starting": 1684,
    "\u2581Health": 1685,
    "\",": 1686,
    "\u2581death": 1687,
    "\u2581pages": 1688,
    "\u2581vehicle": 1689,
    "\u2581request": 1690,
    "\u2581helps": 1691,
    "\u2581blue": 1692,
    "\u2581analysis": 1693,
    "\u2581posted": 1694,
    "\u2581healthy": 1695,
    "\u2581contract": 1696,
    "\u2581\u2022": 1697,
    "\u2581Each": 1698,
    "\u2581Fa": 1699,
    "\u2581dintre": 1700,
    "\u2581Friday": 1701,
    "\u2581considered": 1702,
    "cher": 1703,
    "\u2581quick": 1704,
    "\u2581understanding": 1705,
    "\u2581condition": 1706,
    "ization": 1707,
    "\u2581document": 1708,
    "\u2581prevent": 1709,
    "\u2581growing": 1710,
    "\u2581protection": 1711,
    "\u2581cat": 1712,
    "\u2581#": 1713,
    "10": 1714,
    "\u2581join": 1715,
    "\u2581serve": 1716,
    "\u2581blood": 1717,
    "\u2581July": 1718,
    "\u2581region": 1719,
    "car": 1720,
    "\u2581entre": 1721,
    "\u2581physical": 1722,
    "\u2581cash": 1723,
    "aux": 1724,
    "ng": 1725,
    "\u2581stage": 1726,
    "\u2581seem": 1727,
    "\u2581definitely": 1728,
    "\u2581investment": 1729,
    "\u2581purpose": 1730,
    "\u2581begin": 1731,
    "\u00ae": 1732,
    "\u2581break": 1733,
    "itate": 1734,
    "\u2581moving": 1735,
    "\u2581met": 1736,
    "ize": 1737,
    "\u2581select": 1738,
    "\u2581tous": 1739,
    "\u2581Europe": 1740,
    "@": 1741,
    "\u2581individuals": 1742,
    "\u2581Zeit": 1743,
    "gu": 1744,
    "\u2581unit": 1745,
    "\u2581noi": 1746,
    "\u2581places": 1747,
    "all": 1748,
    "\u2581wait": 1749,
    "\u2581difference": 1750,
    "\u2581round": 1751,
    "50": 1752,
    "rie": 1753,
    "\u2581Et": 1754,
    "20": 1755,
    "\u2581activity": 1756,
    "\u0435": 1757,
    "\u2581Windows": 1758,
    "\u2581produce": 1759,
    "\u2581keine": 1760,
    "\u2581Air": 1761,
    "\u2581January": 1762,
    "\u2581deux": 1763,
    "\u2581entry": 1764,
    "king": 1765,
    "\u2581goals": 1766,
    "\u2581previous": 1767,
    "\u2581+": 1768,
    "\u2581Business": 1769,
    "ont": 1770,
    "\u2581Sunday": 1771,
    "\u2581offering": 1772,
    "\u2581response": 1773,
    "\u2581surface": 1774,
    "\u2581Department": 1775,
    "\u2581exactly": 1776,
    "\u2581Online": 1777,
    "dem": 1778,
    "ischen": 1779,
    "\u2581hands": 1780,
    "\u2581hour": 1781,
    "\u2581dog": 1782,
    "\u2581damage": 1783,
    "\u2581capital": 1784,
    "\u2581toate": 1785,
    "\u2581wrong": 1786,
    "unui": 1787,
    "tri": 1788,
    "\u2581sell": 1789,
    "\u2581published": 1790,
    "\u2581families": 1791,
    "\u2581avoid": 1792,
    "\u2581Ko": 1793,
    "\u2581mod": 1794,
    "rat": 1795,
    "\u2581Make": 1796,
    "\u2581October": 1797,
    "\u2581former": 1798,
    "\u2581Services": 1799,
    "\u2581felt": 1800,
    "\u2581selection": 1801,
    "eaza": 1802,
    "gel": 1803,
    "\u2581Good": 1804,
    "\u2581actual": 1805,
    "\u2581gut": 1806,
    "\u2581gas": 1807,
    "15": 1808,
    "\u2581structure": 1809,
    "\u2581act": 1810,
    "\u2581Zu": 1811,
    "\u2581creative": 1812,
    "\u2581Vi": 1813,
    "\u2581shop": 1814,
    "\u2581Lo": 1815,
    "\u015fi": 1816,
    "\u2581mis": 1817,
    "ungen": 1818,
    "\u2581fan": 1819,
    "\u2581|": 1820,
    "\u2581Bei": 1821,
    "\u2581protect": 1822,
    "\u2581Na": 1823,
    "q": 1824,
    "ok": 1825,
    "\u2581California": 1826,
    "\u2581political": 1827,
    "25": 1828,
    "\u2581feeling": 1829,
    "\u2581ces": 1830,
    "\u2581display": 1831,
    "\u2581essential": 1832,
    "\u00e2nd": 1833,
    "\u2581seine": 1834,
    "\u2581soft": 1835,
    "ach": 1836,
    "\u2581happen": 1837,
    "\u2581Paul": 1838,
    "\u2581Cu": 1839,
    "house": 1840,
    "ante": 1841,
    "\u2581easier": 1842,
    "\u2581sort": 1843,
    "\u2581Post": 1844,
    "\u2581accept": 1845,
    "field": 1846,
    "zen": 1847,
    "\u2581character": 1848,
    "\u2581beginning": 1849,
    "\u2581Jesus": 1850,
    "\u2581weekend": 1851,
    "\u2581certainly": 1852,
    "\u2581THE": 1853,
    "\u2581alle": 1854,
    "\u2581transport": 1855,
    "\u2581Saturday": 1856,
    "\u2581basic": 1857,
    "\u2581loved": 1858,
    "ros": 1859,
    "\u2581offered": 1860,
    "\u2581camera": 1861,
    "\u2581Green": 1862,
    "ology": 1863,
    "\u00e4": 1864,
    "\u2581manage": 1865,
    "\u2581paid": 1866,
    "\u2581advice": 1867,
    "\u2581patient": 1868,
    "\u2581spent": 1869,
    "\u2581mir": 1870,
    "\u2581baby": 1871,
    "\u00f6": 1872,
    "\u2581basis": 1873,
    "\u2581cancer": 1874,
    "\u2581Although": 1875,
    "\u2581gift": 1876,
    "\u25813.": 1877,
    "dieser": 1878,
    "\u2581overall": 1879,
    "\u2581Sch": 1880,
    "\u2581Ex": 1881,
    "\u2581December": 1882,
    "\u2581released": 1883,
    "\u2581prior": 1884,
    "\u2581sowie": 1885,
    "\u2581club": 1886,
    "\u2581Street": 1887,
    "\u2581College": 1888,
    "\u2581\u00ee": 1889,
    "over": 1890,
    "\u2581gave": 1891,
    "\u2581truly": 1892,
    "par": 1893,
    "\u2581Canada": 1894,
    "\u2581existing": 1895,
    "lie": 1896,
    "\u2581ganz": 1897,
    "\u2581setting": 1898,
    "\u2581supply": 1899,
    "\u2581college": 1900,
    "\u2581communication": 1901,
    "\u258123": 1902,
    "\u2581pass": 1903,
    "\u2581devices": 1904,
    "\u2581glass": 1905,
    "\u2581experienced": 1906,
    "\u2581grand": 1907,
    "\u2581Po": 1908,
    "\u2581beyond": 1909,
    "\u2581format": 1910,
    "\u2581mon": 1911,
    "\u2581perform": 1912,
    "sten": 1913,
    "\u25811,": 1914,
    "\u2581Per": 1915,
    "\u2581sold": 1916,
    "\u2581rates": 1917,
    "\u2581regarding": 1918,
    "\u2581Paris": 1919,
    "\u2581Dar": 1920,
    "\u2581challenge": 1921,
    "\u2581feet": 1922,
    "\u2581Su": 1923,
    "je": 1924,
    "\u2581Bank": 1925,
    "ven": 1926,
    "jo": 1927,
    "\u2581band": 1928,
    "\u2581delivery": 1929,
    "Vous": 1930,
    "tele": 1931,
    "\u2581East": 1932,
    "\u2581pictures": 1933,
    "\u2581useful": 1934,
    "*": 1935,
    "\u2581increased": 1936,
    "\u2581stories": 1937,
    "sion": 1938,
    "bra": 1939,
    "\u2581brought": 1940,
    "\u2581effort": 1941,
    "\u2581payment": 1942,
    "\u2581heard": 1943,
    "\u2581played": 1944,
    "\u2581White": 1945,
    "\u2581metal": 1946,
    "tal": 1947,
    "\u2581engine": 1948,
    "\u2581Club": 1949,
    "ical": 1950,
    "\u2581effects": 1951,
    "\u2581degree": 1952,
    "\u2581bed": 1953,
    "ette": 1954,
    "\u2581David": 1955,
    "\u00b0": 1956,
    "\u2581Au": 1957,
    "\u2581Company": 1958,
    "\u2581player": 1959,
    "\u2581Today": 1960,
    "\u2581maintain": 1961,
    "\u2581minute": 1962,
    "mail": 1963,
    "\u2581race": 1964,
    "\u2581comfortable": 1965,
    "\u2581responsible": 1966,
    "vor": 1967,
    "\u2581associated": 1968,
    "\u2581weather": 1969,
    "\u2581$1": 1970,
    "\u2581tried": 1971,
    "\u2581Check": 1972,
    "\u2581solid": 1973,
    "\u2581movie": 1974,
    "\u2581coffee": 1975,
    "board": 1976,
    "\u2581po": 1977,
    "\u2581warm": 1978,
    "\u2581connect": 1979,
    "\u2581Ad": 1980,
    "work": 1981,
    "mal": 1982,
    "\u2581Act": 1983,
    "\u2581achieve": 1984,
    "\u2581Nach": 1985,
    "www": 1986,
    "term": 1987,
    "\u2581claim": 1988,
    "\u2581particularly": 1989,
    "\u2581cas": 1990,
    "\u2581furniture": 1991,
    "\u2581finish": 1992,
    "\u2581temps": 1993,
    "\u2581disease": 1994,
    "\u2581lots": 1995,
    "\u2581ball": 1996,
    "\u2581sun": 1997,
    "\u2581strategy": 1998,
    "bre": 1999,
    "\u2581mine": 2000,
    "\u2581Click": 2001,
    "ran": 2002,
    "\u2581Will": 2003,
    "\u2581garden": 2004,
    "\u2581stuff": 2005,
    "\u2581limit": 2006,
    "\u2581bottom": 2007,
    "\u2581shown": 2008,
    "ship": 2009,
    "\u2581habe": 2010,
    "\u2581Super": 2011,
    "\u2581completed": 2012,
    "\u2581wine": 2013,
    "ische": 2014,
    "\u2581largest": 2015,
    "\u2581appropriate": 2016,
    "\u2581immediately": 2017,
    "\u2581Hi": 2018,
    "\u2581trust": 2019,
    "ability": 2020,
    "\u2581powerful": 2021,
    "\u2581helping": 2022,
    "\u2581schedule": 2023,
    "\u2581correct": 2024,
    "\u2581transfer": 2025,
    "pre": 2026,
    "\u2581journey": 2027,
    "pm": 2028,
    "don": 2029,
    "\u2581highest": 2030,
    "\u2581finally": 2031,
    "form": 2032,
    "\u2581extremely": 2033,
    "\u2581window": 2034,
    "\u2581Over": 2035,
    "\u2581remove": 2036,
    "wood": 2037,
    "\u25812013": 2038,
    "\u2581mother": 2039,
    "\u2581Auto": 2040,
    "\u2581annual": 2041,
    "\u2581Star": 2042,
    "\u2581Di": 2043,
    "\u043e": 2044,
    "\u2581gold": 2045,
    "tar": 2046,
    "ju": 2047,
    "\u2581Use": 2048,
    "\u2581thanks": 2049,
    "\u2581centre": 2050,
    "\u2581Australia": 2051,
    "\u2581estate": 2052,
    "\u2581eyes": 2053,
    "\u2581force": 2054,
    "\u2581income": 2055,
    "\u2581science": 2056,
    "ori": 2057,
    "\u2581enter": 2058,
    "\u258128": 2059,
    "ire": 2060,
    "\u2581schools": 2061,
    "\u2581restaurant": 2062,
    "\u2581Council": 2063,
    "aus": 2064,
    "\u2581agree": 2065,
    "\u2581campaign": 2066,
    "\u2581Ta": 2067,
    "\u2581letter": 2068,
    "\u2581central": 2069,
    "\u2581Because": 2070,
    "\u2581path": 2071,
    "\u2581loc": 2072,
    "\u2581files": 2073,
    "\u2581population": 2074,
    "\u2581explore": 2075,
    "\u2581mid": 2076,
    "\u2581concept": 2077,
    "\u2581church": 2078,
    "80": 2079,
    "\u2581einfach": 2080,
    "\u2581reasons": 2081,
    "\u2581determine": 2082,
    "\u2581February": 2083,
    "\u2581evidence": 2084,
    "\u2581sleep": 2085,
    "\u2581Board": 2086,
    "\u2581maybe": 2087,
    "\u2581wasn": 2088,
    "\u2581Monday": 2089,
    "\u2581director": 2090,
    "well": 2091,
    "During": 2092,
    "\u2581sweet": 2093,
    "\u2581assist": 2094,
    "\u2581police": 2095,
    "\u2581repair": 2096,
    "\u2581techniques": 2097,
    "\u2581served": 2098,
    "vi": 2099,
    "\u2581sports": 2100,
    "\u2581opening": 2101,
    "\u2581ones": 2102,
    "\u2581notice": 2103,
    "\u2581PC": 2104,
    "\u2581alte": 2105,
    "\u2581Bi": 2106,
    "\u2581cold": 2107,
    "\u2581billion": 2108,
    "\u2581balance": 2109,
    "cer": 2110,
    "\u2581nearly": 2111,
    "\u2581wear": 2112,
    "free": 2113,
    "\u2581Have": 2114,
    "\u2581comfort": 2115,
    "\u2581studies": 2116,
    "\u2581traffic": 2117,
    "\u2581item": 2118,
    "\u2581teaching": 2119,
    "\u2581turned": 2120,
    "isation": 2121,
    "12": 2122,
    "\u2581greater": 2123,
    "\u2581knew": 2124,
    "\u2581Association": 2125,
    "\u2581Office": 2126,
    "\u2581established": 2127,
    "45": 2128,
    "\u2581Love": 2129,
    "\u2581changed": 2130,
    "\u2581pan": 2131,
    "van": 2132,
    "\u2581Mi": 2133,
    "\u2581tend": 2134,
    "\u2581connection": 2135,
    "\u2581lack": 2136,
    "\u2581bank": 2137,
    "cat": 2138,
    "\u2581helped": 2139,
    "\u2581spot": 2140,
    "\u2581spring": 2141,
    "\u2581Wi": 2142,
    "\u2581Mac": 2143,
    "\u2581Christ": 2144,
    "\u2581saying": 2145,
    "\u2581General": 2146,
    "\u2581port": 2147,
    "\u2581Mal": 2148,
    "\u2581System": 2149,
    "\u2581According": 2150,
    "\u2581chiar": 2151,
    "log": 2152,
    "\u2581mix": 2153,
    "\u2581Lake": 2154,
    "\u2581intr": 2155,
    "\u2581deliver": 2156,
    "mon": 2157,
    "\u2581Ro": 2158,
    "\u2581Management": 2159,
    "bri": 2160,
    "\u2581pieces": 2161,
    "\u2581announced": 2162,
    "\u2581Yes": 2163,
    "\u2581dark": 2164,
    "val": 2165,
    "\u2581rights": 2166,
    "\u2581Diese": 2167,
    "ki": 2168,
    "vent": 2169,
    "\u2581born": 2170,
    "\u2581muss": 2171,
    "compared": 2172,
    "\u2581demand": 2173,
    "\u2581handle": 2174,
    "\u2581mode": 2175,
    "lic": 2176,
    "\u2581ahead": 2177,
    "\u2581sharing": 2178,
    "\u2581micro": 2179,
    "\u2581Par": 2180,
    "\u2581Every": 2181,
    "\u2581bag": 2182,
    "\u2581daca": 2183,
    "\u2581Apple": 2184,
    "\u2581Mark": 2185,
    "\u2581larger": 2186,
    "eze": 2187,
    "\u2581progress": 2188,
    "\u2581stress": 2189,
    "\u2581cards": 2190,
    "\u2581driving": 2191,
    "\u2581dry": 2192,
    "\u2581relevant": 2193,
    "\u2581Jo": 2194,
    "\u2581tree": 2195,
    "\u2581reported": 2196,
    "ities": 2197,
    "\u2581tea": 2198,
    "\u2581although": 2199,
    "\u2581Research": 2200,
    "\u2581pool": 2201,
    "\u2581fin": 2202,
    "\u2581Und": 2203,
    "\u2581decide": 2204,
    "\u2581expert": 2205,
    "rate": 2206,
    "zeit": 2207,
    "\u258126": 2208,
    "\u2581Ka": 2209,
    "\u2581fix": 2210,
    "igen": 2211,
    "\u2581direction": 2212,
    "\u2581star": 2213,
    "\u2581middle": 2214,
    "\u2581Ja": 2215,
    "\u2581Land": 2216,
    "ken": 2217,
    "\u2581button": 2218,
    "\u2581rules": 2219,
    "\u2581\u00e9galement": 2220,
    "\u2581viel": 2221,
    "\u2581welcome": 2222,
    "c\u0103": 2223,
    "\u2581Top": 2224,
    "\u2581allowed": 2225,
    "\u2581tip": 2226,
    "\u2581cei": 2227,
    "\u2581Nous": 2228,
    "t\u00e9": 2229,
    "\u2581unei": 2230,
    "\u2581efforts": 2231,
    "\u2581note": 2232,
    "\u2581title": 2233,
    "ric": 2234,
    "berg": 2235,
    "\u2581ainsi": 2236,
    "\u2581led": 2237,
    "\u2581alone": 2238,
    "ward": 2239,
    "\u2581vie": 2240,
    "\u2581brain": 2241,
    "light": 2242,
    "\u2581Court": 2243,
    "set": 2244,
    "\u2581steps": 2245,
    "pri": 2246,
    "Q": 2247,
    "sti": 2248,
    "\u2581voice": 2249,
    "\u2581models": 2250,
    "\u2581parties": 2251,
    "\u2581radio": 2252,
    "\u2581mission": 2253,
    "\u2581methods": 2254,
    "\u2581Te": 2255,
    "air": 2256,
    "\u2581essay": 2257,
    "my": 2258,
    "\u2581competition": 2259,
    "ses": 2260,
    "\u2581serious": 2261,
    "\u2581Ti": 2262,
    "\u2581Hand": 2263,
    "not": 2264,
    "\u2581winter": 2265,
    "24": 2266,
    "\u2581vision": 2267,
    "\u2581technical": 2268,
    "\u2581cross": 2269,
    "\u2581update": 2270,
    "\u2581Team": 2271,
    "\u2581evening": 2272,
    "\u2581experts": 2273,
    "part": 2274,
    "\u2581wo": 2275,
    "\u2581App": 2276,
    "\u2581peu": 2277,
    "\u2581mich": 2278,
    "\u2581reports": 2279,
    "\u2581km": 2280,
    "\u2581print": 2281,
    "\u2581Hotel": 2282,
    "\u2581earlier": 2283,
    "\u2581uses": 2284,
    "\u2581menu": 2285,
    "\u2581miles": 2286,
    "\u2581classes": 2287,
    "\u2581mo": 2288,
    "\u2581loan": 2289,
    "\u2581host": 2290,
    "\u2581author": 2291,
    "-1": 2292,
    "\u2581bun": 2293,
    "19": 2294,
    "uch": 2295,
    "ble": 2296,
    "\u2581holiday": 2297,
    "los": 2298,
    "\u2581looked": 2299,
    "\u2581Test": 2300,
    "\u2581moved": 2301,
    "\u2581numbers": 2302,
    "\u2581covered": 2303,
    "ker": 2304,
    "TM": 2305,
    "\u2581album": 2306,
    "\u258127": 2307,
    "\u2581c\u00e2nd": 2308,
    "\u2581shopping": 2309,
    "\u2581Ihr": 2310,
    "\u2581requires": 2311,
    "\u2581USA": 2312,
    "000": 2313,
    "\u2581official": 2314,
    "\u2581states": 2315,
    "\u2581tips": 2316,
    "ible": 2317,
    "\u2581Lu": 2318,
    "ces": 2319,
    "\u2581figure": 2320,
    "\u2581Take": 2321,
    "\u2581dup\u0103": 2322,
    "\u2581teams": 2323,
    "\u2581song": 2324,
    "\u2581master": 2325,
    "ED": 2326,
    "\u2581cleaning": 2327,
    "\u2581drop": 2328,
    "\u2581primary": 2329,
    "\u2581Life": 2330,
    "\u2581carry": 2331,
    "\u2581initial": 2332,
    "\u2581encore": 2333,
    "\u2581Add": 2334,
    "\u2581woman": 2335,
    "\u2581Water": 2336,
    "\u2581advantage": 2337,
    "see": 2338,
    "r\u00e9": 2339,
    "\u2581motor": 2340,
    "mel": 2341,
    "\u2581finding": 2342,
    "\u2581plastic": 2343,
    "\u2581IT": 2344,
    "\u2581Church": 2345,
    "\u2581shape": 2346,
    "\u2581gets": 2347,
    "\u2581followed": 2348,
    "\u2581100%": 2349,
    "\u2581Program": 2350,
    "\u2581Another": 2351,
    "\u2581zwei": 2352,
    "\u2581father": 2353,
    "\u2581rich": 2354,
    "o\u00f9": 2355,
    "\u2581lines": 2356,
    "\u2581distance": 2357,
    "\u2581cell": 2358,
    "\u2581parte": 2359,
    "bit": 2360,
    "\u2581perhaps": 2361,
    "rii": 2362,
    "\u2581session": 2363,
    "\u2581Pentru": 2364,
    "ING": 2365,
    "ants": 2366,
    "\u2581remain": 2367,
    "13": 2368,
    "\u2581finished": 2369,
    "bel": 2370,
    "\u2581organizations": 2371,
    "\u2581Any": 2372,
    "\u2581taste": 2373,
    "Whether": 2374,
    "ram": 2375,
    "like": 2376,
    "\u2581artist": 2377,
    "aire": 2378,
    "\u2581French": 2379,
    "\u2581donc": 2380,
    "ow": 2381,
    "\u2581200": 2382,
    "\u2581paint": 2383,
    "\u2581Open": 2384,
    "\u2581appear": 2385,
    "\u2581Washington": 2386,
    "\u2581target": 2387,
    "pir": 2388,
    "\u2581generally": 2389,
    "\u2581British": 2390,
    "\u2581seven": 2391,
    "\u2581bio": 2392,
    "\u2581sector": 2393,
    "90": 2394,
    "\u2581fapt": 2395,
    "\u2581prefer": 2396,
    "\u2581partner": 2397,
    "\u0103m": 2398,
    "\u2581diverse": 2399,
    "\u2581onto": 2400,
    "\u2581refer": 2401,
    "\u2581Law": 2402,
    "\u2581Ri": 2403,
    "\u2581critical": 2404,
    "\u2581copy": 2405,
    "ck": 2406,
    "ix": 2407,
    "tag": 2408,
    "\u2581Road": 2409,
    "\u2581concern": 2410,
    "\u2581maximum": 2411,
    "\u2581train": 2412,
    "\u2581\u00eentr": 2413,
    "ura": 2414,
    "\u2581Qu": 2415,
    "\u2581links": 2416,
    "\u2581audience": 2417,
    "\u2581foot": 2418,
    "\u2581Blue": 2419,
    "ification": 2420,
    "\u2581developing": 2421,
    "\u2581interior": 2422,
    "=": 2423,
    "\u2581aceasta": 2424,
    "\u2581dedicated": 2425,
    "\u2581movement": 2426,
    "sta": 2427,
    "\u2581challenges": 2428,
    "inte": 2429,
    "\u2581Euro": 2430,
    "\u2581classic": 2431,
    "\u2581Um": 2432,
    "\u2581alternative": 2433,
    "mann": 2434,
    "\u2581Une": 2435,
    "qu": 2436,
    "\u2581heavy": 2437,
    "\u2581install": 2438,
    "\u2581fiind": 2439,
    "\u2581leaders": 2440,
    "\u2581views": 2441,
    "\u2581www": 2442,
    "\u2581standards": 2443,
    "ong": 2444,
    "40": 2445,
    "\u2581cm": 2446,
    "\u2581park": 2447,
    "\u2581himself": 2448,
    "\u2581People": 2449,
    "\u2581separate": 2450,
    "\u2581secure": 2451,
    "sie": 2452,
    "\u2581maintenance": 2453,
    "\u2581encourage": 2454,
    "ein": 2455,
    "\u2581reviews": 2456,
    "\u2581Michael": 2457,
    "\u2581background": 2458,
    "\u2581therefore": 2459,
    "\u2581server": 2460,
    "\u2581dream": 2461,
    "ping": 2462,
    "\u2581block": 2463,
    "\u25812009": 2464,
    "\u2581facilities": 2465,
    "\u2581II": 2466,
    "\u2581attend": 2467,
    "\u2581cap": 2468,
    "35": 2469,
    "\u2581steel": 2470,
    "\u2581shared": 2471,
    "\u2581doctor": 2472,
    "\u2581River": 2473,
    "\u2581Bay": 2474,
    "\u2581length": 2475,
    "\u2581jobs": 2476,
    "\u2581Plus": 2477,
    "\u2581station": 2478,
    "\u2581elements": 2479,
    "\u2581rock": 2480,
    "\u2581professionals": 2481,
    "cle": 2482,
    "\u2581dont": 2483,
    "urilor": 2484,
    "\u2581gain": 2485,
    "\u2581programme": 2486,
    "\u2581Cor": 2487,
    "\u2581leader": 2488,
    "\u0103rii": 2489,
    "\u2581>": 2490,
    "\u2581task": 2491,
    "\u2581seeing": 2492,
    "\u2581statement": 2493,
    "vin": 2494,
    "\u2581fish": 2495,
    "\u2581advanced": 2496,
    "\u2581discuss": 2497,
    "die": 2498,
    "isch": 2499,
    "\u2581plenty": 2500,
    "\u2581Hall": 2501,
    "\u2581Other": 2502,
    "\u2581homes": 2503,
    "\u2581Ni": 2504,
    "\u2581testing": 2505,
    "\u2581Last": 2506,
    "\u2581Note": 2507,
    "\u2581talking": 2508,
    "\u2581exchange": 2509,
    "\u2581exercise": 2510,
    "\u2581cea": 2511,
    "\u2581wife": 2512,
    "\u2581F\u00fcr": 2513,
    "\u2581Texas": 2514,
    "\u2581fr": 2515,
    "\u2581speak": 2516,
    "17": 2517,
    "70": 2518,
    "\u2581promote": 2519,
    "tul": 2520,
    "apos": 2521,
    "\u2581Jahr": 2522,
    "\u2581Trump": 2523,
    "\u2581ohne": 2524,
    "\u2581learned": 2525,
    "\u2581Sp": 2526,
    "\u2581owner": 2527,
    "mor": 2528,
    "\u2581fois": 2529,
    "\u2581meaning": 2530,
    "\u2581dac\u0103": 2531,
    "nic": 2532,
    "\u0430": 2533,
    "14": 2534,
    "\u2581driver": 2535,
    "\u2581Amazon": 2536,
    "\u2581flow": 2537,
    "\u2581shot": 2538,
    "\u2581sous": 2539,
    "\u2581Gold": 2540,
    "\u2581straight": 2541,
    "\u2581conference": 2542,
    "\u2581peste": 2543,
    "whose": 2544,
    "\u2581installation": 2545,
    "\u2581produced": 2546,
    "\u2581independent": 2547,
    "\u2581Institute": 2548,
    "\u2581James": 2549,
    "\u2581mental": 2550,
    "ara": 2551,
    "ium": 2552,
    "\u2581husband": 2553,
    "\u2581guests": 2554,
    "27": 2555,
    "\u2581Che": 2556,
    "\u2581Indian": 2557,
    "zer": 2558,
    "\u2581minimum": 2559,
    "500": 2560,
    "\u2581sit": 2561,
    "put": 2562,
    "\u2581avea": 2563,
    "\u2581ride": 2564,
    "gan": 2565,
    "\u2581Ke": 2566,
    "book": 2567,
    "ages": 2568,
    "\u2581presented": 2569,
    "\u2581Com": 2570,
    "\u2581Call": 2571,
    "\u2581fee": 2572,
    "\u0103ri": 2573,
    "\u2581putea": 2574,
    "\u2581Public": 2575,
    "\u2581pa": 2576,
    "28": 2577,
    "\u2581Director": 2578,
    "\u2581contains": 2579,
    "\u2581factors": 2580,
    "\u2581famous": 2581,
    "\u2581bathroom": 2582,
    "\u2581core": 2583,
    "\u2581viele": 2584,
    "\u2581acum": 2585,
    "\u2581animal": 2586,
    "\u2581Ihnen": 2587,
    "\u2581Find": 2588,
    "\u2581Fall": 2589,
    "ford": 2590,
    "\u2581coverage": 2591,
    "\u2581smart": 2592,
    "ries": 2593,
    "\u2581memory": 2594,
    "\u2581dance": 2595,
    "11": 2596,
    "\u2581communities": 2597,
    "eurs": 2598,
    "\u2581Florida": 2599,
    "\u2581sport": 2600,
    "\u2581bus": 2601,
    "\u2581colors": 2602,
    "\u2581affect": 2603,
    "\u2581score": 2604,
    "\u2581properties": 2605,
    "18": 2606,
    "\u2581astfel": 2607,
    "\u2581beach": 2608,
    "\u2581friendly": 2609,
    "izing": 2610,
    "\u2581buying": 2611,
    "\u2581forget": 2612,
    "este": 2613,
    "\u2581capacity": 2614,
    "\u2581lose": 2615,
    "\u2581listed": 2616,
    "ica": 2617,
    "han": 2618,
    "\u2581selbst": 2619,
    "\u2581values": 2620,
    "\u2581Power": 2621,
    "\u2581comments": 2622,
    "eux": 2623,
    "a\u021bi": 2624,
    "\u2581context": 2625,
    "liche": 2626,
    "\u2581keeping": 2627,
    "\u25812008": 2628,
    "\u2581su": 2629,
    "\u2581biggest": 2630,
    "\u2581fiecare": 2631,
    "ight": 2632,
    "\u2581toute": 2633,
    "\u2581dinner": 2634,
    "bau": 2635,
    "\u2581Mai": 2636,
    "\u2581status": 2637,
    "rez": 2638,
    "\u2581selected": 2639,
    "\u2581cells": 2640,
    "\u2581eight": 2641,
    "\u2581package": 2642,
    "\u2581scale": 2643,
    "din": 2644,
    "\u2581Who": 2645,
    "\u2581century": 2646,
    "\u2581bi": 2647,
    "\u2581Africa": 2648,
    "\u2581http": 2649,
    "\u2581named": 2650,
    "\u2581adding": 2651,
    "\u2581mention": 2652,
    "\u2581casino": 2653,
    "\u2581couldn": 2654,
    "\u2581outdoor": 2655,
    "\u2581sugar": 2656,
    "\u2581prepared": 2657,
    "21": 2658,
    "\u2581Ba": 2659,
    "vers": 2660,
    "ration": 2661,
    "\u2581ja": 2662,
    "\u2581aspect": 2663,
    "\u258131": 2664,
    "\u2581treat": 2665,
    "tru": 2666,
    "\u2581flat": 2667,
    "32": 2668,
    "\u2581reality": 2669,
    "\u2581waste": 2670,
    "\u2581King": 2671,
    "\u2581drug": 2672,
    "\u2581operations": 2673,
    "\u2581aim": 2674,
    "\u2581fans": 2675,
    "\u2581vers": 2676,
    "\u2581plants": 2677,
    "\u2581Dis": 2678,
    "\u2581Daten": 2679,
    "\u00eatre": 2680,
    "\u2581placed": 2681,
    "\u2581bon": 2682,
    "beim": 2683,
    "\u2581slow": 2684,
    "cri": 2685,
    "\u2581Care": 2686,
    "mes": 2687,
    "26": 2688,
    "box": 2689,
    "\u2581helpful": 2690,
    "\u2581documents": 2691,
    "\u2581visitors": 2692,
    "ture": 2693,
    "\u2581Menschen": 2694,
    "\u2581Chi": 2695,
    "\u2581recipe": 2696,
    "\u2581kept": 2697,
    "\u2581Grand": 2698,
    "\u2581operating": 2699,
    "point": 2700,
    "\u2581bin": 2701,
    "\u2581Tri": 2702,
    "Be": 2703,
    "\u2581experiences": 2704,
    "\u2581academic": 2705,
    "\u2581finden": 2706,
    "\u2581sera": 2707,
    "act": 2708,
    "\u2581Pa": 2709,
    "\u2581society": 2710,
    "\u2581combination": 2711,
    "5%": 2712,
    "\u2581owners": 2713,
    "\u2581poor": 2714,
    "\u2581Robert": 2715,
    "\u2581military": 2716,
    "\u2581economy": 2717,
    "\u2581aware": 2718,
    "rot": 2719,
    "mie": 2720,
    "\u2581Thursday": 2721,
    "\u25812011": 2722,
    "\u2581fantastic": 2723,
    "\u2581numerous": 2724,
    "\u2581fair": 2725,
    "med": 2726,
    "\u2581welche": 2727,
    "\u2581fruit": 2728,
    "ku": 2729,
    "\u2581Social": 2730,
    "\u2581funds": 2731,
    "\u2581atunci": 2732,
    "\u2581Part": 2733,
    "\u2581Big": 2734,
    "\u25812010": 2735,
    "\u2581detail": 2736,
    "\u2581Peter": 2737,
    "ani": 2738,
    "\u2581Wie": 2739,
    "\u2581Tu": 2740,
    "ear": 2741,
    "\u2581Wenn": 2742,
    "\u2581manager": 2743,
    "\u2581Dan": 2744,
    "\u2581Pi": 2745,
    "\u2581wants": 2746,
    "\u2581Data": 2747,
    "pos": 2748,
    "\u2581older": 2749,
    "\u2581Download": 2750,
    "\u2581Was": 2751,
    "\u2581corner": 2752,
    "\u2581president": 2753,
    "mas": 2754,
    "\u2581smaller": 2755,
    "\u2581bright": 2756,
    "\u2581proper": 2757,
    "\u2581Kinder": 2758,
    "\u2581Two": 2759,
    "\u2581award": 2760,
    "\u2581premier": 2761,
    "\u2581seek": 2762,
    "\u2581thank": 2763,
    "\u2581proud": 2764,
    "\u2581workers": 2765,
    "\u25812000": 2766,
    "\u2581gone": 2767,
    "\u2581medium": 2768,
    "\u2581grade": 2769,
    "\u2581Ru": 2770,
    "cro": 2771,
    "\u2581interview": 2772,
    "23": 2773,
    "\u2581mari": 2774,
    "\u258180": 2775,
    "\u2581Ga": 2776,
    "\u258190": 2777,
    "\u2581anderen": 2778,
    "\u2581cultural": 2779,
    "but": 2780,
    "rum": 2781,
    "get": 2782,
    "\u2581pop": 2783,
    "\u2581Information": 2784,
    "\u2581press": 2785,
    "\u2581Project": 2786,
    "\u2581excited": 2787,
    "\u2581Saint": 2788,
    "\u2581England": 2789,
    "\u2581beauty": 2790,
    "\u2581agreement": 2791,
    "\u2581Like": 2792,
    "\u2581strength": 2793,
    "\u2581waiting": 2794,
    "\u0438": 2795,
    "Le": 2796,
    "\u2581residents": 2797,
    "\u2581Ben": 2798,
    "\u2581mentioned": 2799,
    "\u2581etwas": 2800,
    "\u2581rooms": 2801,
    "\u2581neue": 2802,
    "\u2581Microsoft": 2803,
    "\u2581passed": 2804,
    "\u2581sea": 2805,
    "\u2581electric": 2806,
    "\u2581forms": 2807,
    "\u2581Central": 2808,
    "\u2581Lord": 2809,
    "ute": 2810,
    "\u2581pr\u00e9": 2811,
    "\u2581square": 2812,
    "itatea": 2813,
    "\u2581debt": 2814,
    "\u2581street": 2815,
    "\u2581pi": 2816,
    "\u2581happened": 2817,
    "\u2581Tuesday": 2818,
    "recht": 2819,
    "\u2581Eine": 2820,
    "\u2581Set": 2821,
    "\u2581federal": 2822,
    "CC": 2823,
    "....": 2824,
    "lig": 2825,
    "\u2581Christian": 2826,
    "\u2581truth": 2827,
    "\u2581map": 2828,
    "\u2581secret": 2829,
    "\u2581Chinese": 2830,
    "hol": 2831,
    "\u2581wrote": 2832,
    "\u2581hospital": 2833,
    "\u2581Island": 2834,
    "\u2581frame": 2835,
    "\u2581sources": 2836,
    "pan": 2837,
    "\u258129": 2838,
    "\u2581changing": 2839,
    "\u2581Where": 2840,
    "\u2581negative": 2841,
    "\u2581processes": 2842,
    "\u2581leadership": 2843,
    "\u2581nos": 2844,
    "\u2581info": 2845,
    "\u2581Gu": 2846,
    "\u2581CO": 2847,
    "\u2581reference": 2848,
    "\u2581corporate": 2849,
    "\u2581characters": 2850,
    "\u2581dining": 2851,
    "\u2581becoming": 2852,
    "\u25814.": 2853,
    "\u2581Science": 2854,
    "\u2581Education": 2855,
    "\u2581camp": 2856,
    "fall": 2857,
    "\u2581Auch": 2858,
    "\u2581topic": 2859,
    "\u2581influence": 2860,
    "\u258170": 2861,
    "\u2581identify": 2862,
    "\u2581(19": 2863,
    "care": 2864,
    "ions": 2865,
    "ray": 2866,
    "\u2581Both": 2867,
    "\u2581collect": 2868,
    "\u2581practices": 2869,
    "\u2581fight": 2870,
    "\u2581injury": 2871,
    "\u2581nici": 2872,
    "\u2581depuis": 2873,
    "\u2581actions": 2874,
    "\u2581Wednesday": 2875,
    "\u2581bill": 2876,
    "\u2581cheap": 2877,
    "lui": 2878,
    "\u2581awesome": 2879,
    "tig": 2880,
    "\u2581expensive": 2881,
    "ceea": 2882,
    "\u2581exact": 2883,
    "22": 2884,
    "\u2581avant": 2885,
    "\u2581fat": 2886,
    "\u2581spending": 2887,
    "\u2581designs": 2888,
    "\u2581damit": 2889,
    "\u2581comp": 2890,
    "\u2581whatever": 2891,
    "\u2581Light": 2892,
    "\u2581quarter": 2893,
    "hand": 2894,
    "\u2581connected": 2895,
    "\u2581technologies": 2896,
    "ges": 2897,
    "\u2581shower": 2898,
    "\u2581500": 2899,
    "\u2581Time": 2900,
    "\u2581zone": 2901,
    "\u2581vote": 2902,
    "\u2581andere": 2903,
    "\u2581otherwise": 2904,
    "tur": 2905,
    "\u2581happens": 2906,
    "hin": 2907,
    "\u2581volume": 2908,
    "\u2581thousands": 2909,
    "war": 2910,
    "\u2581Play": 2911,
    "\u2581temperature": 2912,
    "\u2581industrial": 2913,
    "\u2581fuel": 2914,
    "100": 2915,
    "top": 2916,
    "kin": 2917,
    "\u2581efficient": 2918,
    "teil": 2919,
    "alt": 2920,
    "\u2581monde": 2921,
    "\u2581Ra": 2922,
    "\u2581bedroom": 2923,
    "\u2581showing": 2924,
    "\u2581continued": 2925,
    "\u2581Plan": 2926,
    "\u2581assistance": 2927,
    "\u2581discover": 2928,
    "\u2581Year": 2929,
    "\u2581applied": 2930,
    "\u2581audio": 2931,
    "\u2581thus": 2932,
    "\u2581permet": 2933,
    "\u2581fashion": 2934,
    "cra": 2935,
    "ious": 2936,
    "\u2581focused": 2937,
    "16": 2938,
    "\u2581arm": 2939,
    "\u2581Their": 2940,
    "\u2581Foundation": 2941,
    "\u2581majority": 2942,
    "\u2581wind": 2943,
    "\u2581bought": 2944,
    "\u2581factor": 2945,
    "\u2581opened": 2946,
    "tern": 2947,
    "\u2581cars": 2948,
    "\u2581exciting": 2949,
    "\u2581affordable": 2950,
    "ches": 2951,
    "\u2581panel": 2952,
    "\u2581caused": 2953,
    "\u2581travail": 2954,
    "\u2581roof": 2955,
    "\u2581enable": 2956,
    "\u2581toward": 2957,
    "\u2581Development": 2958,
    "\u2581foreign": 2959,
    "avi": 2960,
    "long": 2961,
    "De": 2962,
    "\u2581Mon": 2963,
    "\u2581Va": 2964,
    "AP": 2965,
    "\u2581asta": 2966,
    "\u2581prepare": 2967,
    "\u2581German": 2968,
    "\u2581Centre": 2969,
    "\u00e8re": 2970,
    "\u2581fear": 2971,
    "\u2581Este": 2972,
    "\u2581Des": 2973,
    "\u2581Kon": 2974,
    "\u00e1": 2975,
    "stand": 2976,
    "\u2581Real": 2977,
    "lichen": 2978,
    "\u2581Beach": 2979,
    "\u2581expertise": 2980,
    "\u2581route": 2981,
    "\u2581nation": 2982,
    "\u2581snow": 2983,
    "\u2581articles": 2984,
    "\u2581Wood": 2985,
    "\u2581operation": 2986,
    "\u2581passion": 2987,
    "\u2581cand": 2988,
    "haus": 2989,
    "OR": 2990,
    "\u2581senior": 2991,
    "\u2581becomes": 2992,
    "\u2581sounds": 2993,
    "\u2581enjoyed": 2994,
    "\u2581gegen": 2995,
    "\u2581courses": 2996,
    "\u2581absolutely": 2997,
    "tim": 2998,
    "uff": 2999,
    "\u2581moins": 3000,
    "\u2581TO": 3001,
    "\u2581fabric": 3002,
    "poli": 3003,
    "\u2581Bre": 3004,
    "\u2581bo": 3005,
    "\u2581Elle": 3006,
    "bu": 3007,
    "\u2581participants": 3008,
    "stone": 3009,
    "ties": 3010,
    "\u2581listen": 3011,
    "\u2581Spiel": 3012,
    "pot": 3013,
    "\u2581selling": 3014,
    "\u2581geht": 3015,
    "\u2581mini": 3016,
    "\u2581trans": 3017,
    "\u2581ingredients": 3018,
    "auf": 3019,
    "\u2581orice": 3020,
    "\u2581Next": 3021,
    "\u2581cream": 3022,
    "\u2581edge": 3023,
    "\u2581recommended": 3024,
    "\u2581Form": 3025,
    "\u2581processing": 3026,
    "vert": 3027,
    "\u2581described": 3028,
    "\u2581installed": 3029,
    "\u2581managed": 3030,
    "\u2581electronic": 3031,
    "\u2581performed": 3032,
    "\u2581raise": 3033,
    "\u2581imagine": 3034,
    "down": 3035,
    "\u2581fond": 3036,
    "\u2581Inter": 3037,
    "\u2581Mc": 3038,
    "\u2581Dans": 3039,
    "istic": 3040,
    "\u2581miss": 3041,
    "sur": 3042,
    "\u2581Col": 3043,
    "cut": 3044,
    "\u2581dupa": 3045,
    "\u2581Twitter": 3046,
    "\u2581bowl": 3047,
    "\u2581remains": 3048,
    "\u2581Jan": 3049,
    "\u2581smooth": 3050,
    "\u2581fees": 3051,
    "\u2581aid": 3052,
    "\u2581presence": 3053,
    "\u2581Android": 3054,
    "\u2581decisions": 3055,
    "\u2581names": 3056,
    "\u2581Music": 3057,
    "\u2581innovative": 3058,
    "\u2581Tom": 3059,
    "\u2581spread": 3060,
    "\u2581lovely": 3061,
    "\u2581daughter": 3062,
    "US": 3063,
    "\u2581facility": 3064,
    "\u2581peace": 3065,
    "\u2581department": 3066,
    "\u2581weiter": 3067,
    "\u2581Sun": 3068,
    "\u2581fund": 3069,
    "\u25812018.": 3070,
    "\u2581discussion": 3071,
    "75": 3072,
    "EC": 3073,
    "\u2581lunch": 3074,
    "\u2581videos": 3075,
    "05": 3076,
    "ige": 3077,
    "\u2581parking": 3078,
    "\u2581relationships": 3079,
    "\u2581George": 3080,
    "\u2581teachers": 3081,
    "room": 3082,
    "\u2581Tra": 3083,
    "\u2581Sam": 3084,
    "\u2581properly": 3085,
    "\u2581Book": 3086,
    "\u2581CA": 3087,
    "\u2581calls": 3088,
    "\u2581stat": 3089,
    "ux": 3090,
    "\u2581soit": 3091,
    "\u2581Community": 3092,
    "\u2581Jahren": 3093,
    "\u2581increasing": 3094,
    "\u2581civil": 3095,
    "app": 3096,
    "\u258135": 3097,
    "\u2581rise": 3098,
    "\u2581dabei": 3099,
    "\u2581studio": 3100,
    "\u2581policies": 3101,
    "\u2581agent": 3102,
    "\u2581Before": 3103,
    "\u2581Cal": 3104,
    "\u25812005": 3105,
    "\u2581sample": 3106,
    "\u2581manner": 3107,
    "wing": 3108,
    "stra": 3109,
    "\u2581fel": 3110,
    "\u2581Show": 3111,
    "\u2581scene": 3112,
    "mic": 3113,
    "nom": 3114,
    "\u2581typically": 3115,
    "\u2581pair": 3116,
    "\u2581detailed": 3117,
    "\u2581Work": 3118,
    "\u2581cities": 3119,
    "\u2581Rock": 3120,
    "\u2581Gar": 3121,
    "\u2581serving": 3122,
    "\u2581machen": 3123,
    "\u2581trees": 3124,
    "\u2581accident": 3125,
    "\u2581cloud": 3126,
    "\u2581animals": 3127,
    "\u2581Den": 3128,
    "\u2581Wa": 3129,
    "\u2581suggest": 3130,
    "putting": 3131,
    "\u2581suite": 3132,
    "\u2581clearly": 3133,
    "\u2581net": 3134,
    "\u2581funding": 3135,
    "\u2581salt": 3136,
    "\u2581Men": 3137,
    "ped": 3138,
    "\u2581Food": 3139,
    "\u2581leaving": 3140,
    "\u2581Government": 3141,
    "ick": 3142,
    "\u2581seat": 3143,
    "\u2581Los": 3144,
    "\u2581teacher": 3145,
    "\u2581iPhone": 3146,
    "\u2581300": 3147,
    "\u2581commitment": 3148,
    "\u2581aspects": 3149,
    "\u2581previously": 3150,
    "\u2581cent": 3151,
    "\u2581Vo": 3152,
    "\u2581artists": 3153,
    "\u2581runs": 3154,
    ">": 3155,
    "\u2581Gi": 3156,
    "\u2581mar": 3157,
    "!!!": 3158,
    "\u2581Media": 3159,
    "\u2581feedback": 3160,
    "\u2581resolution": 3161,
    "IN": 3162,
    "\u2581wurden": 3163,
    "\u2581busy": 3164,
    "\u2581adult": 3165,
    "29": 3166,
    "elles": 3167,
    "\u2581closed": 3168,
    "\u2581trouble": 3169,
    "\u2581rent": 3170,
    "lot": 3171,
    "\u2581importance": 3172,
    "\u2581units": 3173,
    "Pro": 3174,
    "\u2581provider": 3175,
    "\u2581visual": 3176,
    "IT": 3177,
    "\u2581diet": 3178,
    "\u2581appearance": 3179,
    "pin": 3180,
    "\u2581Din": 3181,
    "\u2581eating": 3182,
    "Fi": 3183,
    "ball": 3184,
    "\u00e4r": 3185,
    "ney": 3186,
    "\u2581records": 3187,
    "\u2581Fi": 3188,
    "\u2581faut": 3189,
    "\u2581CD": 3190,
    "ign": 3191,
    "\u2581v\u0103": 3192,
    "\u2581agency": 3193,
    "ierung": 3194,
    "\u2581Back": 3195,
    "\u2581windows": 3196,
    "\u2581pull": 3197,
    "ash": 3198,
    "\u2581profit": 3199,
    "\u2581brings": 3200,
    "\u2581Committee": 3201,
    "\u2581girl": 3202,
    "\u2581vehicles": 3203,
    "\u2581Hier": 3204,
    "ES": 3205,
    "p\u00e2n\u0103": 3206,
    "\u2581Kunden": 3207,
    "pen": 3208,
    "\u2581explain": 3209,
    "\u2581cadru": 3210,
    "\u2581attack": 3211,
    "\u2581markets": 3212,
    "\u2581claims": 3213,
    "\u2581walking": 3214,
    "\u2581pouv": 3215,
    "low": 3216,
    "\u2581showed": 3217,
    "\u2581principal": 3218,
    "\u2581lucru": 3219,
    "\u2581precum": 3220,
    "TA": 3221,
    "\u2581partners": 3222,
    "\u2581exist": 3223,
    "\u2581internal": 3224,
    "hen": 3225,
    "\u2581Master": 3226,
    "unless": 3227,
    "\u2581doubt": 3228,
    "$": 3229,
    "\u2581Long": 3230,
    "\u2581leaves": 3231,
    "allowing": 3232,
    "pol": 3233,
    "\u2581Up": 3234,
    "\u2581Contact": 3235,
    "\u2581practical": 3236,
    "\u2581suit": 3237,
    "\u2581Site": 3238,
    "\u2581formation": 3239,
    "\u2581signal": 3240,
    "\u2581approximately": 3241,
    "\u2581ourselves": 3242,
    "\u2581colour": 3243,
    "\u2581species": 3244,
    "\u2581advance": 3245,
    "\u2581PM": 3246,
    "ans": 3247,
    "\u2581locations": 3248,
    "vous": 3249,
    "\u2581updated": 3250,
    "\u2581faith": 3251,
    "mus": 3252,
    "\u2581stores": 3253,
    "heim": 3254,
    "\u2581suitable": 3255,
    "\u2581continues": 3256,
    "\u2581fac": 3257,
    "ever": 3258,
    "\u2581Bill": 3259,
    "\u2581chose": 3260,
    "\u2581inform": 3261,
    "\u2581environmental": 3262,
    "\u2581responsibility": 3263,
    "99": 3264,
    "\u2581competitive": 3265,
    "\u2581strategies": 3266,
    "\u2581toujours": 3267,
    "tive": 3268,
    "\u2581automatically": 3269,
    "\u2581dress": 3270,
    "\u2581Minister": 3271,
    "har": 3272,
    "\u2581Start": 3273,
    "\u2581=": 3274,
    "\u2581pattern": 3275,
    "tier": 3276,
    "\u2581pays": 3277,
    "\u2581profile": 3278,
    "\u2581raised": 3279,
    "ange": 3280,
    "\u2581drink": 3281,
    "\u2581element": 3282,
    "\u2581landscape": 3283,
    "\u2581Tag": 3284,
    "\u2581cheese": 3285,
    "ific": 3286,
    "\u2581Stadt": 3287,
    "39": 3288,
    "\u2581launch": 3289,
    "\u2581wouldn": 3290,
    "AS": 3291,
    "\u2581push": 3292,
    "\u2581mill": 3293,
    "\u2581mass": 3294,
    "\u2581category": 3295,
    "sondern": 3296,
    "col": 3297,
    "\u2581climate": 3298,
    "lier": 3299,
    "\u2581slightly": 3300,
    "95": 3301,
    "ace": 3302,
    "\u2581domain": 3303,
    "kan": 3304,
    "\u2581feed": 3305,
    "\u2581Live": 3306,
    "\u2581Mais": 3307,
    "\u2581apr\u00e8s": 3308,
    "\u2581village": 3309,
    "\u2581hatte": 3310,
    "\u2581joined": 3311,
    "\u2581Museum": 3312,
    "head": 3313,
    "\u2581draw": 3314,
    "\u2581concerns": 3315,
    "ER": 3316,
    "\u2581technique": 3317,
    "\u2581Bio": 3318,
    "\u2581Sea": 3319,
    "\u2581@": 3320,
    "wer": 3321,
    "\u2581battery": 3322,
    "\u2581mostly": 3323,
    "\u2581familiar": 3324,
    "\u2581Sub": 3325,
    "\u2581delicious": 3326,
    "doch": 3327,
    "60": 3328,
    "\u2581carte": 3329,
    "\u2581avut": 3330,
    "\u2581premium": 3331,
    "\u2581attempt": 3332,
    "\u2581\u00dcber": 3333,
    "\u2581combined": 3334,
    "lement": 3335,
    "\u2581voi": 3336,
    "\u2581wonder": 3337,
    "\u2581failure": 3338,
    "which": 3339,
    "esti": 3340,
    "31": 3341,
    "\u2581sta": 3342,
    "\u2581transform": 3343,
    "\u2581license": 3344,
    "\u2581depending": 3345,
    "\u2581specifically": 3346,
    "\u2581OF": 3347,
    "band": 3348,
    "\u2581Sport": 3349,
    "list": 3350,
    "\u2581Tour": 3351,
    "\u2581Israel": 3352,
    "\u2581filled": 3353,
    "\u2581manual": 3354,
    "\u2581watching": 3355,
    "\u2581rule": 3356,
    "mat": 3357,
    "\u2581notes": 3358,
    "\u2581Oh": 3359,
    "\u2581bereits": 3360,
    "\u2581foundation": 3361,
    "\u2581vital": 3362,
    "\u2581lassen": 3363,
    "\u2581c\u00e2t": 3364,
    "\u2581shipping": 3365,
    "\u2581registered": 3366,
    "\u2581jour": 3367,
    "\u2581island": 3368,
    "\u2581sets": 3369,
    "\u2581football": 3370,
    "\u2581EU": 3371,
    "\u2581stone": 3372,
    "\u2581Press": 3373,
    "\u2581adapt": 3374,
    "ised": 3375,
    "\u2581thoughts": 3376,
    "\u2581doors": 3377,
    "\u20ac": 3378,
    "\u2581components": 3379,
    "rig": 3380,
    "\u2581generation": 3381,
    "\u2581guess": 3382,
    "cker": 3383,
    "\u2581realize": 3384,
    "\u2581Roman": 3385,
    "\u2581contre": 3386,
    "\u2581Out": 3387,
    "\u2581IN": 3388,
    "cip": 3389,
    "59": 3390,
    "\u2581enhance": 3391,
    "\u2581battle": 3392,
    "\u2581monitor": 3393,
    "\u2581Martin": 3394,
    "\u2581websites": 3395,
    "\u2581DE": 3396,
    "\u2581Festival": 3397,
    "\u00e2n": 3398,
    "\u2581Place": 3399,
    "\u2581rare": 3400,
    "aceast\u0103": 3401,
    "\u2581sollte": 3402,
    "\u2581Read": 3403,
    "ware": 3404,
    "Those": 3405,
    "ende": 3406,
    "\u2581prix": 3407,
    "\u2581roman": 3408,
    "\u2581creation": 3409,
    "\u2581confidence": 3410,
    "\u2581Japan": 3411,
    "\u2581rain": 3412,
    "\u2581guys": 3413,
    "\u2581south": 3414,
    "\u2581trading": 3415,
    "\u2581\u20ac": 3416,
    "\u2581Film": 3417,
    "\u2581pana": 3418,
    "\u2581asemenea": 3419,
    "36": 3420,
    "\u2581instance": 3421,
    "cou": 3422,
    "\u2581nun": 3423,
    "\u2581Pass": 3424,
    "Cette": 3425,
    "\u2581Network": 3426,
    "\u2581prime": 3427,
    "\u2581spiritual": 3428,
    "\u2581tough": 3429,
    "\u2581AND": 3430,
    "\u2581Cat": 3431,
    "\u2581boat": 3432,
    "\u2581leads": 3433,
    "\u2581Germany": 3434,
    "\u2581valuable": 3435,
    "57": 3436,
    "lect": 3437,
    "\u2581distribution": 3438,
    "dar": 3439,
    "\u2581Manager": 3440,
    "cha": 3441,
    "\u2581obtain": 3442,
    "GB": 3443,
    "\u2581unor": 3444,
    "schaft": 3445,
    "\u2581zwischen": 3446,
    "\u2581winning": 3447,
    "\u2581suis": 3448,
    "58": 3449,
    "\u2581Party": 3450,
    "\u2581ceva": 3451,
    "\u2581comprehensive": 3452,
    "\u2581aceste": 3453,
    "\u2581committed": 3454,
    "\u2581Hu": 3455,
    "\u0163": 3456,
    "\u2581north": 3457,
    "werk": 3458,
    "\u2581interface": 3459,
    "\u2581Valley": 3460,
    "\u2581anywhere": 3461,
    "\u2581Only": 3462,
    "TE": 3463,
    "hui": 3464,
    "bus": 3465,
    "vis": 3466,
    "\u2581Society": 3467,
    "\u2581reliable": 3468,
    "\u2581quelques": 3469,
    "tech": 3470,
    "ual": 3471,
    "\u2581educational": 3472,
    "serv": 3473,
    "\u2581opinion": 3474,
    "\u2581appears": 3475,
    "\u2581count": 3476,
    "irea": 3477,
    "ban": 3478,
    "\u258145": 3479,
    "\u2581contain": 3480,
    "ost": 3481,
    "\u2581anul": 3482,
    "rien": 3483,
    "gra": 3484,
    "\u2581counter": 3485,
    "-3": 3486,
    "\u2581resource": 3487,
    "\u2581Wo": 3488,
    "\u2581posts": 3489,
    "\u2581employee": 3490,
    "rol": 3491,
    "\u2581ended": 3492,
    "met": 3493,
    "\u2581meine": 3494,
    "\u2581reached": 3495,
    "gri": 3496,
    "\u2581Bra": 3497,
    "\u2581conduct": 3498,
    "\u2581housing": 3499,
    "\u2581tickets": 3500,
    "\u2581database": 3501,
    "IL": 3502,
    "\u2581perspective": 3503,
    "\u2581Har": 3504,
    "\u2581error": 3505,
    "\u2581meal": 3506,
    "\u2581hearing": 3507,
    "\u2581transition": 3508,
    "\u2581browser": 3509,
    "\u2581supported": 3510,
    "\u2581starts": 3511,
    "\u021be": 3512,
    "\u2581adults": 3513,
    "\u2581Rom\u00e2nia": 3514,
    "dra": 3515,
    "\u2581worry": 3516,
    "\u2581avoir": 3517,
    "\u2581regional": 3518,
    "\u2581min": 3519,
    "\u2581Does": 3520,
    "\u2581Keep": 3521,
    "rom": 3522,
    "sco": 3523,
    "tem": 3524,
    "\u2581Old": 3525,
    "\u2581Under": 3526,
    "\u2581Commission": 3527,
    "\u2581Bau": 3528,
    "\u2581News": 3529,
    "\u2581mois": 3530,
    "\u2581respond": 3531,
    "\u2581alles": 3532,
    "\u2581chair": 3533,
    "\u2581ho": 3534,
    "right": 3535,
    "\u2581totally": 3536,
    "gle": 3537,
    "\u258132": 3538,
    "66": 3539,
    "town": 3540,
    "Ch": 3541,
    "\u2581gr": 3542,
    "\u2581garage": 3543,
    "\u021bii": 3544,
    "\u2581Union": 3545,
    "ic\u0103": 3546,
    "\u25812,": 3547,
    "\u2581reflect": 3548,
    "\u2581retail": 3549,
    "\u2581unde": 3550,
    "\u2581accessible": 3551,
    "water": 3552,
    "\u2581regard": 3553,
    "\u2581logo": 3554,
    "\u2581inspired": 3555,
    "\u2581Wall": 3556,
    "\u2581Ste": 3557,
    "\u2581asking": 3558,
    "\u2581Journal": 3559,
    "\u2581Teil": 3560,
    "\u2581collaboration": 3561,
    "\u2581acid": 3562,
    "\u2581Fund": 3563,
    "\u2581spirit": 3564,
    "despite": 3565,
    "\u2581delivered": 3566,
    "\u2581girls": 3567,
    "\u2581Look": 3568,
    "rant": 3569,
    "\u2581District": 3570,
    "\u2581rental": 3571,
    "\u2581spune": 3572,
    "els": 3573,
    "\u2581permanent": 3574,
    "\u2581iron": 3575,
    "\u2581Thomas": 3576,
    "EL": 3577,
    "\u2581except": 3578,
    "\u2581catch": 3579,
    "\u2581providers": 3580,
    "\u25812006": 3581,
    "\u2581chat": 3582,
    "\u2581emergency": 3583,
    "gre": 3584,
    "site": 3585,
    "\u2581missing": 3586,
    "abil": 3587,
    "\u2581Hill": 3588,
    "urs": 3589,
    "\u2581plusieurs": 3590,
    "\u2581birthday": 3591,
    "DS": 3592,
    "ersten": 3593,
    "\u25815.": 3594,
    "\u2581library": 3595,
    "\u2581earth": 3596,
    "CI": 3597,
    "\u2581lighting": 3598,
    "\u2581fixed": 3599,
    "tori": 3600,
    "\u2581replace": 3601,
    "\u2581administration": 3602,
    "leurs": 3603,
    "\u2581meat": 3604,
    "\u2581songs": 3605,
    "\u2581confirm": 3606,
    "\u2581rapid": 3607,
    "\u2581Special": 3608,
    "\u2581holding": 3609,
    "\u2581honor": 3610,
    "\u2581Market": 3611,
    "La": 3612,
    "\u2581measure": 3613,
    "\u2581guarantee": 3614,
    "\u2581switch": 3615,
    "\u2581extensive": 3616,
    "\u2581Neu": 3617,
    "avez": 3618,
    "\u2581protein": 3619,
    "\u2581infrastructure": 3620,
    "\u2581functions": 3621,
    "\u2581cont": 3622,
    "row": 3623,
    "star": 3624,
    "\u2581Port": 3625,
    "Using": 3626,
    "\u2581faster": 3627,
    "44": 3628,
    "\u2581measures": 3629,
    "\u2581celor": 3630,
    "\u2581exam": 3631,
    "200": 3632,
    "\u00ee": 3633,
    "\u2581conversation": 3634,
    "\u2581brands": 3635,
    "\u2581Code": 3636,
    "\u2581Website": 3637,
    "OS": 3638,
    "\u2581alors": 3639,
    "\u2581organ": 3640,
    "\u2581removed": 3641,
    "\u2581Head": 3642,
    "\u2581Cha": 3643,
    "\u2581visiting": 3644,
    "\u2581wild": 3645,
    "\u2581seit": 3646,
    "49": 3647,
    "\u2581organic": 3648,
    "a\u0163i": 3649,
    "\u2581kit": 3650,
    "68": 3651,
    "\u2581flowers": 3652,
    "\u2581appreciate": 3653,
    "\u2581dead": 3654,
    "\u2581Fire": 3655,
    "\u2581cela": 3656,
    "\u2581Ph": 3657,
    "\u2581arrive": 3658,
    "\u2581purposes": 3659,
    "\u2581qualit\u00e9": 3660,
    "\u2581restaurants": 3661,
    "\u2581advertising": 3662,
    "cur": 3663,
    "\u2581\u00e7a": 3664,
    "\u2581introduced": 3665,
    "\u2581returned": 3666,
    "\u2581desire": 3667,
    "\u2581soul": 3668,
    "\u2581Technology": 3669,
    ");": 3670,
    "\u2581Royal": 3671,
    "tant": 3672,
    "\u2581possibly": 3673,
    "\u2581consumers": 3674,
    "\u2581doua": 3675,
    "ified": 3676,
    "\u2581Award": 3677,
    "toutes": 3678,
    "\u2581meant": 3679,
    "ezi": 3680,
    "\u2581plu": 3681,
    "\u0163ii": 3682,
    "\u2581talent": 3683,
    "\u2581Security": 3684,
    "arii": 3685,
    "\u2581zi": 3686,
    "\u2581Shop": 3687,
    "\u2581breakfast": 3688,
    "\u2581trial": 3689,
    "ami": 3690,
    "\u2581register": 3691,
    "unserer": 3692,
    "\u2581solar": 3693,
    "\u2581deals": 3694,
    "\u2581Ku": 3695,
    "To": 3696,
    "bat": 3697,
    "MC": 3698,
    "\u2581Global": 3699,
    "\u0443": 3700,
    "\u2581nor": 3701,
    "\u2581milk": 3702,
    "\u2581choices": 3703,
    "\u00bb": 3704,
    "\u2581Sur": 3705,
    "more": 3706,
    "48": 3707,
    "67": 3708,
    "\u2581replacement": 3709,
    "34": 3710,
    "\u2581chocolate": 3711,
    "\u2581Family": 3712,
    "This": 3713,
    "\u2581novel": 3714,
    "\u2581Chicago": 3715,
    "\u2581participate": 3716,
    "\u2581trei": 3717,
    "\u2581monthly": 3718,
    "\u2581survey": 3719,
    "\u2581End": 3720,
    "\u2581Medical": 3721,
    "autres": 3722,
    "rich": 3723,
    "\u2581bike": 3724,
    "\u2581eventually": 3725,
    "\u2581HD": 3726,
    "bil": 3727,
    "cent": 3728,
    "\u2581afin": 3729,
    "\u2581surgery": 3730,
    "\u2581sin": 3731,
    "\u2581manufacturing": 3732,
    "\u2581consumer": 3733,
    "system": 3734,
    "\u2581object": 3735,
    "\u2581Ju": 3736,
    "ered": 3737,
    "rac": 3738,
    "\u2581clinical": 3739,
    "\u2581dollars": 3740,
    "\u2581chain": 3741,
    "\u2581afternoon": 3742,
    "\u2581ligne": 3743,
    "\u2581accounts": 3744,
    "ving": 3745,
    "\u2581Australian": 3746,
    "38": 3747,
    "\u2581persoane": 3748,
    "\u2581grande": 3749,
    "\u2581Report": 3750,
    "\u2581revenue": 3751,
    "\u2581spre": 3752,
    "\u2581cutting": 3753,
    "\u2581approved": 3754,
    "\u2581glad": 3755,
    "chaque": 3756,
    "win": 3757,
    "\u2581waren": 3758,
    "\u2581launched": 3759,
    "\u2581layer": 3760,
    "\u2581airport": 3761,
    "\u2581effectively": 3762,
    "\u2581coach": 3763,
    "d\u00e9": 3764,
    "LE": 3765,
    "\u2581m\u00fcssen": 3766,
    "plan": 3767,
    "dan": 3768,
    "55": 3769,
    "bringing": 3770,
    "\u2581$2": 3771,
    "nce": 3772,
    "\u2581inspiration": 3773,
    "You": 3774,
    "\u2581soll": 3775,
    "\u2581seemed": 3776,
    "\u2581flight": 3777,
    "\u2581prima": 3778,
    "\u2581Welt": 3779,
    "\u2581jetzt": 3780,
    "ky": 3781,
    "\u2581Western": 3782,
    "\u2581label": 3783,
    "\u2581m\u00f6glich": 3784,
    "\u2581input": 3785,
    "\u2581laws": 3786,
    "\u2581personnes": 3787,
    "\u2581paying": 3788,
    "\u2581Uhr": 3789,
    "\u2581Mary": 3790,
    "pur": 3791,
    "\u2581covers": 3792,
    "\u2581throw": 3793,
    "\u2581Tor": 3794,
    "\u2581bat": 3795,
    "\u2581Gr": 3796,
    "\u2581farm": 3797,
    "\u2581improved": 3798,
    "\u2581f\u0103r\u0103": 3799,
    "\u2581theme": 3800,
    "pens": 3801,
    "\u2581Cup": 3802,
    "\u2581settings": 3803,
    "\u2581hire": 3804,
    "\u2581massive": 3805,
    "\u2581generate": 3806,
    "\u2581earn": 3807,
    "\u2581tab": 3808,
    "For": 3809,
    "gang": 3810,
    "\u2581hin": 3811,
    "\u2581roll": 3812,
    "\u2581engagement": 3813,
    "\u2581signed": 3814,
    "\u2581League": 3815,
    "\u2581registration": 3816,
    "\u2581premi\u00e8re": 3817,
    "isse": 3818,
    "\u2581university": 3819,
    "ell": 3820,
    "\u2581nou": 3821,
    "rog": 3822,
    "\u2581sitting": 3823,
    "\u2581cazul": 3824,
    "\u2581surrounding": 3825,
    "\u2581Asia": 3826,
    "\u2581bath": 3827,
    "hal": 3828,
    "\u2581plate": 3829,
    "\u2581tests": 3830,
    "\u2581presentation": 3831,
    "\u2581chicken": 3832,
    "\u2581Val": 3833,
    "ably": 3834,
    "\u2581magazine": 3835,
    "\u2581Maybe": 3836,
    "\u2581sauce": 3837,
    "TC": 3838,
    "\u2581exclusive": 3839,
    "86": 3840,
    "\u2581teeth": 3841,
    "\u2581regularly": 3842,
    "sed": 3843,
    "gro": 3844,
    "He": 3845,
    "\u25812017.": 3846,
    "\u2581template": 3847,
    "\u2581gleich": 3848,
    "bal": 3849,
    "\u2581African": 3850,
    "\u00een": 3851,
    "\u2581rep": 3852,
    "\u2581beat": 3853,
    "\u2581deck": 3854,
    "\u2581intended": 3855,
    "\u2581para": 3856,
    "\u2581IP": 3857,
    "\u2581bra": 3858,
    "\u2581forces": 3859,
    "\u2581routine": 3860,
    "\u2581Jahre": 3861,
    "\u2581Bad": 3862,
    "\u2581drivers": 3863,
    "\u2581updates": 3864,
    "\u2581elegant": 3865,
    "\u2581external": 3866,
    "\u2581engineering": 3867,
    "ender": 3868,
    "table": 3869,
    "inter": 3870,
    "\u2581Romania": 3871,
    "\u2581zile": 3872,
    "\u2581luxury": 3873,
    "\u2581calling": 3874,
    "\u2581cooking": 3875,
    "\u2581component": 3876,
    "wan": 3877,
    "schen": 3878,
    "\u2581birth": 3879,
    "asupra": 3880,
    "Co": 3881,
    "\u2581opt": 3882,
    "\u2581discovered": 3883,
    "\u2581teach": 3884,
    "\u2581Son": 3885,
    "\u2581guest": 3886,
    "\u2581dogs": 3887,
    "\u25812003": 3888,
    "\u2581behavior": 3889,
    "p\u00e9": 3890,
    "63": 3891,
    "\u2581Human": 3892,
    "\u2581expression": 3893,
    "\u2581nevoie": 3894,
    "\u2581recherche": 3895,
    "ging": 3896,
    "related": 3897,
    "\u2581discount": 3898,
    "\u2581Brown": 3899,
    "\u2581Such": 3900,
    "\u2581Ve": 3901,
    "\u2581height": 3902,
    "clo": 3903,
    "\u2581incredible": 3904,
    "\u2581bas": 3905,
    "\u2581m\u0103": 3906,
    "\u2581purchased": 3907,
    "\u2581compte": 3908,
    "\u2581instructions": 3909,
    "\u2581Instead": 3910,
    "\u2581output": 3911,
    "\u2581mom": 3912,
    "DR": 3913,
    "89": 3914,
    "\u2581reduced": 3915,
    "98": 3916,
    "\u2581constant": 3917,
    "\u2581therapy": 3918,
    "\u2581capable": 3919,
    "mark": 3920,
    "\u2581Sometimes": 3921,
    "\u2581joy": 3922,
    "\u2581perfectly": 3923,
    "\u2581painting": 3924,
    "avait": 3925,
    "\u2581Sha": 3926,
    "\u2581dat": 3927,
    "\u2581produits": 3928,
    "tric": 3929,
    "ierte": 3930,
    "\u2581Smith": 3931,
    "\u2581trebui": 3932,
    "\u2581beaucoup": 3933,
    "\u2581chosen": 3934,
    "\u2581cre": 3935,
    "\u2581complet": 3936,
    "\u2581Ltd": 3937,
    "\u2581recovery": 3938,
    "\u2581district": 3939,
    "78": 3940,
    "\u2581Unter": 3941,
    "\u2581schnell": 3942,
    "\u2581apart": 3943,
    "\u2581phase": 3944,
    "\u2581seeking": 3945,
    "\u2581mark": 3946,
    "\u2581pet": 3947,
    "\u2581PDF": 3948,
    "\u2581efficiency": 3949,
    "\u2581buildings": 3950,
    "69": 3951,
    "\u2581sens": 3952,
    "\u2581Video": 3953,
    "\u2581destination": 3954,
    "\u2581female": 3955,
    "\u2581supporting": 3956,
    "\u2581signs": 3957,
    "\u2581appeal": 3958,
    "76": 3959,
    "\u2581favourite": 3960,
    "ock": 3961,
    "\u2581readers": 3962,
    "\u2581Did": 3963,
    "rou": 3964,
    "PA": 3965,
    "\u2581Jean": 3966,
    "\u2581Em": 3967,
    "pass": 3968,
    "\u2581Zi": 3969,
    "\u2581\u00eentre": 3970,
    "\u2581fly": 3971,
    "mos": 3972,
    "\u2581emotional": 3973,
    "asse": 3974,
    "\u2581sessions": 3975,
    "\u2581symptoms": 3976,
    "\u2581died": 3977,
    "\u2581seconds": 3978,
    "\u2581procedure": 3979,
    "\u2581express": 3980,
    "\u2581dou\u0103": 3981,
    "\u2581valid": 3982,
    "\u2581euro": 3983,
    "\u2581interests": 3984,
    "Having": 3985,
    "\u2581hundreds": 3986,
    "grad": 3987,
    "\u2581neuen": 3988,
    "\u2581cook": 3989,
    "\u2581pur": 3990,
    "\u2581charges": 3991,
    "sche": 3992,
    "\u2581smile": 3993,
    "\u2581festival": 3994,
    "cho": 3995,
    "\u2581\u00a3": 3996,
    "cht": 3997,
    "\u2581macht": 3998,
    "\u2581Wasser": 3999,
    "\u2581Cap": 4000,
    "\u2581Learn": 4001,
    "\u2581load": 4002,
    "\u2581aici": 4003,
    "\u2581Ch": 4004,
    "\u2581cycle": 4005,
    "\u2581carried": 4006,
    "\u2581jusqu": 4007,
    "stein": 4008,
    "ski": 4009,
    "cap": 4010,
    "\u2581Bal": 4011,
    "\u2581minor": 4012,
    "77": 4013,
    "\u2581considering": 4014,
    "innen": 4015,
    "\u2581greatest": 4016,
    "\u2581Training": 4017,
    "08": 4018,
    "\u2581significantly": 4019,
    "g\u00e9": 4020,
    "\u2581dumpster": 4021,
    "\u2581allem": 4022,
    "\u2581bonus": 4023,
    "\u2581guy": 4024,
    "fel": 4025,
    "\u2581lifestyle": 4026,
    "\u2581Bro": 4027,
    "\u2581implement": 4028,
    "lock": 4029,
    "\u2581Earth": 4030,
    "kar": 4031,
    "\u2581invest": 4032,
    "\u2581river": 4033,
    "\u2581accurate": 4034,
    "\u2581mu": 4035,
    "\u2581celebrate": 4036,
    "\u2581ran": 4037,
    "\u2581bigger": 4038,
    "\u2581Mer": 4039,
    "\u2581millions": 4040,
    "\u2581partie": 4041,
    "\u2581dazu": 4042,
    "\u2581Full": 4043,
    "gie": 4044,
    "bot": 4045,
    "roll": 4046,
    "\u2581Women": 4047,
    "\u2581compare": 4048,
    "\u2581van": 4049,
    "\u2581apps": 4050,
    "PC": 4051,
    "\u2581drei": 4052,
    "\u2581maison": 4053,
    "\u2581knows": 4054,
    "rid": 4055,
    "62": 4056,
    "class": 4057,
    "\u2581chez": 4058,
    "char": 4059,
    "88": 4060,
    "\u2581cast": 4061,
    "\u2581examples": 4062,
    "\u2581Therefore": 4063,
    "\u2581topics": 4064,
    "with": 4065,
    "\u2581Anti": 4066,
    "how": 4067,
    "\u2581whom": 4068,
    "\u2581Deutschland": 4069,
    "tine": 4070,
    "\u2581CEO": 4071,
    "\u2581truck": 4072,
    "\u2581Which": 4073,
    "erie": 4074,
    "fect": 4075,
    "bou": 4076,
    "\u2581(1": 4077,
    "sum": 4078,
    "\u2581bonne": 4079,
    "\u2581remaining": 4080,
    "\u2581equal": 4081,
    "\u2581engage": 4082,
    "\u2581RE": 4083,
    "style": 4084,
    "\u2581urma": 4085,
    "\u2581Grund": 4086,
    "\u00fcr": 4087,
    "\u2581font": 4088,
    "\u2581assets": 4089,
    "AL": 4090,
    "\u2581rear": 4091,
    "\u2581contemporary": 4092,
    "\u2581occur": 4093,
    "rated": 4094,
    "\u2581tight": 4095,
    "\u2581machines": 4096,
    "\u25810.": 4097,
    "\u2581Aber": 4098,
    "sol": 4099,
    "r\u00fc": 4100,
    "\u25812007": 4101,
    "gg": 4102,
    "\u2581unul": 4103,
    "\u2581\u00e9tait": 4104,
    "\u2581capture": 4105,
    "\u2581command": 4106,
    "\u2581wire": 4107,
    "\u2581shift": 4108,
    "\u2581bread": 4109,
    "\u2581causes": 4110,
    "PI": 4111,
    "SC": 4112,
    "\u2581lights": 4113,
    "\u2581lived": 4114,
    "mul": 4115,
    "\u2581Cur": 4116,
    "\u2581Richard": 4117,
    "37": 4118,
    "\u2581cup": 4119,
    "\u2581fields": 4120,
    "\u2581crusher": 4121,
    "65": 4122,
    "avons": 4123,
    "\u2581gear": 4124,
    "\u2581standing": 4125,
    "\u2581thick": 4126,
    "aff": 4127,
    "ments": 4128,
    "\u2581conflict": 4129,
    "it\u00e4t": 4130,
    "\u2581worse": 4131,
    "SE": 4132,
    "imi": 4133,
    "\u2581dating": 4134,
    "Do": 4135,
    "\u2581flexible": 4136,
    "ologie": 4137,
    "SU": 4138,
    "\u2581contribute": 4139,
    "\u2581denn": 4140,
    "\u2581appointment": 4141,
    "\u2581ticket": 4142,
    "bed": 4143,
    "\u25812019.": 4144,
    "\u2581tasks": 4145,
    "\u2581carbon": 4146,
    "\u2581situations": 4147,
    "MA": 4148,
    "\u2581portion": 4149,
    "\u2581urban": 4150,
    "\u2581Canadian": 4151,
    "\u2581Bur": 4152,
    "\u2581pack": 4153,
    "\u2581effet": 4154,
    "\u2581Ball": 4155,
    "\u2581timpul": 4156,
    "\u2581owned": 4157,
    "\u2581surprise": 4158,
    "\u2581Mu": 4159,
    "\u2581decades": 4160,
    "\u2581affected": 4161,
    "\u2581proven": 4162,
    "\u2581Fe": 4163,
    "zy": 4164,
    "42": 4165,
    "\u2581trend": 4166,
    "\u2581autres": 4167,
    "No": 4168,
    "\u2581nine": 4169,
    "ON": 4170,
    "NE": 4171,
    "oli": 4172,
    "\u2581Daniel": 4173,
    "\u2581spa": 4174,
    "\u2581messages": 4175,
    "PS": 4176,
    "47": 4177,
    "\u2581doch": 4178,
    "\u2581improvement": 4179,
    "\u2581mountain": 4180,
    "\u2581Room": 4181,
    "\u2581edition": 4182,
    "\u2581musical": 4183,
    "CP": 4184,
    "\u2581Mill": 4185,
    "\u2581steht": 4186,
    "\u2581determined": 4187,
    "you": 4188,
    "weg": 4189,
    "\u2581Digital": 4190,
    "\u2581filter": 4191,
    "\u2581youth": 4192,
    "\u2581assessment": 4193,
    "\u2581butter": 4194,
    "\u2581Watch": 4195,
    "\u2581zusammen": 4196,
    "\u2581View": 4197,
    "09": 4198,
    "\u2581sole": 4199,
    ".00": 4200,
    "33": 4201,
    "\u2581export": 4202,
    "ery": 4203,
    "\u2581zur\u00fcck": 4204,
    "\u2581walls": 4205,
    "\u2581recognize": 4206,
    "law": 4207,
    "\u2581parent": 4208,
    "ST": 4209,
    "\u2581description": 4210,
    "MS": 4211,
    "SM": 4212,
    "\u2581Finally": 4213,
    "\u2581hardware": 4214,
    "ident": 4215,
    "\u2581brown": 4216,
    "\u2581kinds": 4217,
    "\u2581Arts": 4218,
    "\u2581concert": 4219,
    "\u2581sec": 4220,
    "\u2581represent": 4221,
    "\u2581institutions": 4222,
    "\u2581fur": 4223,
    "\u2581Support": 4224,
    "87": 4225,
    "\u2581ease": 4226,
    "\u2581feels": 4227,
    "\u2581sheet": 4228,
    "\u2581Though": 4229,
    "\u2581propose": 4230,
    "\u2581personnel": 4231,
    "bie": 4232,
    "\u2581contest": 4233,
    "\u2581successfully": 4234,
    "\u2581direkt": 4235,
    "bietet": 4236,
    "\u2581submit": 4237,
    "\u2581sicher": 4238,
    "\u2581Personal": 4239,
    "94": 4240,
    "61": 4241,
    "\u2581Very": 4242,
    "bol": 4243,
    "\u2581ha": 4244,
    "\u2581channel": 4245,
    "mut": 4246,
    "\u2581mouth": 4247,
    "\u2581vast": 4248,
    "\u2581Ob": 4249,
    "lit": 4250,
    "\u2581poly": 4251,
    "\u2581trained": 4252,
    "\u2581specialist": 4253,
    "UL": 4254,
    "\u2581seiner": 4255,
    "SS": 4256,
    "\u2581vacation": 4257,
    "\u2581resume": 4258,
    "\u2581constantly": 4259,
    "\u2581treated": 4260,
    "\u2581150": 4261,
    "\u2581native": 4262,
    "\u2581Russian": 4263,
    "\u2581patterns": 4264,
    "\u2581knowing": 4265,
    "\u2581Pan": 4266,
    "peri": 4267,
    "aci": 4268,
    "\u2581answers": 4269,
    "\u2581heute": 4270,
    "93": 4271,
    "\u2581Winter": 4272,
    "\u2581yes": 4273,
    "SP": 4274,
    "].": 4275,
    "\u2581kein": 4276,
    "\u2581introduce": 4277,
    "-4": 4278,
    "\u2581shoot": 4279,
    "AR": 4280,
    "\u2581receiving": 4281,
    "\u2581intre": 4282,
    "\u2581appeared": 4283,
    "\u2581brother": 4284,
    "\u2581extend": 4285,
    "\u2581fara": 4286,
    "\u2581kommt": 4287,
    "ali": 4288,
    "\u2581numai": 4289,
    "\u2581scientific": 4290,
    "\u2581virtual": 4291,
    "\u2581Ac": 4292,
    "\u2581procedures": 4293,
    "\u2581silver": 4294,
    "\u2581leather": 4295,
    "DA": 4296,
    "\u2581executive": 4297,
    "\u2581officials": 4298,
    "\u2581agencies": 4299,
    "\u2581Software": 4300,
    "\u2581cor": 4301,
    "Con": 4302,
    "\u2581log": 4303,
    "\u021b": 4304,
    "02": 4305,
    "\u25817.": 4306,
    "\u2581accepted": 4307,
    "\u2581Berlin": 4308,
    "ID": 4309,
    "cot": 4310,
    "\u2581employment": 4311,
    "run": 4312,
    "\u2581identified": 4313,
    "96": 4314,
    "\u2581d\u00e9j\u00e0": 4315,
    "\u2581cuisine": 4316,
    "turi": 4317,
    "\u2581Japanese": 4318,
    "\u2581golf": 4319,
    "\u2581Ki": 4320,
    "\u2581carefully": 4321,
    "\u2581remote": 4322,
    "\u25812018,": 4323,
    "\u2581sus": 4324,
    "tique": 4325,
    "\u2581residential": 4326,
    "97": 4327,
    "\u2581Spring": 4328,
    "\u2581Marketing": 4329,
    "\u2581Control": 4330,
    "var": 4331,
    "\u2581historical": 4332,
    "\u2581freedom": 4333,
    "sure": 4334,
    "\u2581broken": 4335,
    "\u2581criminal": 4336,
    "\u2581innovation": 4337,
    "\u2581Italian": 4338,
    "sper": 4339,
    "\u2581cake": 4340,
    "\u2581candidates": 4341,
    "\u2581sizes": 4342,
    "pel": 4343,
    "\u2581frequently": 4344,
    "\u2581planet": 4345,
    "\u2581writer": 4346,
    "1,": 4347,
    "uvent": 4348,
    "\u2581awareness": 4349,
    "name": 4350,
    "\u2581Children": 4351,
    "\u2581relatively": 4352,
    "\u2581pu": 4353,
    "\u2581quiet": 4354,
    "\u2581planned": 4355,
    "\u2581election": 4356,
    "\u25816.": 4357,
    "\u2581broad": 4358,
    "\u2581skill": 4359,
    "\u2581reasonable": 4360,
    "\u2581Fort": 4361,
    "\u2581aceea": 4362,
    "\u2581arrived": 4363,
    "\u2581payments": 4364,
    "ack": 4365,
    "\u2581Ort": 4366,
    "\u2581investors": 4367,
    "\u2581operate": 4368,
    "ME": 4369,
    "dic": 4370,
    "\u2581foods": 4371,
    "\u2581stick": 4372,
    "\u2581agents": 4373,
    "\u2581crowd": 4374,
    "\u2581Students": 4375,
    "\u2581concerned": 4376,
    "test": 4377,
    "\u2581designer": 4378,
    "\u2581Conference": 4379,
    "\u2581saving": 4380,
    "\u2581recorded": 4381,
    "\u2581proposed": 4382,
    "\u2581ship": 4383,
    "\u2581cred": 4384,
    "\u2581Ci": 4385,
    "RE": 4386,
    "\u2581tradition": 4387,
    "\u2581worldwide": 4388,
    "64": 4389,
    "\u2581television": 4390,
    "\u2581projet": 4391,
    "ency": 4392,
    "\u2581struggle": 4393,
    "\u2581twice": 4394,
    "\u2581Off": 4395,
    "\u2581begins": 4396,
    "key": 4397,
    "\u2581Table": 4398,
    "\u2581demande": 4399,
    "\u2581liquid": 4400,
    "meter": 4401,
    "\u25812001": 4402,
    "\u2581willing": 4403,
    "\u2581medicine": 4404,
    "\u2581expand": 4405,
    "\u25812004": 4406,
    "\u25812002": 4407,
    "\u2581accord": 4408,
    "\u2581Chris": 4409,
    "\u2581prove": 4410,
    "ston": 4411,
    "mettre": 4412,
    "\u2581moments": 4413,
    "tik": 4414,
    "such": 4415,
    "2.": 4416,
    "\u2581UN": 4417,
    "\u2581jump": 4418,
    "\u2581dish": 4419,
    "\u2581Key": 4420,
    "\u2581challenging": 4421,
    "\u2581domestic": 4422,
    "\u2581impressive": 4423,
    "iger": 4424,
    "\u2581Ram": 4425,
    "\u2581doit": 4426,
    "\u2581concrete": 4427,
    "\u2581Unternehmen": 4428,
    "\u2581LED": 4429,
    "\u2581trouver": 4430,
    "\u2581fundamental": 4431,
    "\u2581implementation": 4432,
    "85": 4433,
    "\u2581hosting": 4434,
    "\u2581Game": 4435,
    "\u2581taught": 4436,
    "tung": 4437,
    "ront": 4438,
    "\u2581shoes": 4439,
    "79": 4440,
    "\u2581stunning": 4441,
    "\u2581Congress": 4442,
    "\u2581Ent": 4443,
    "\u2581Wer": 4444,
    "\u2581alt": 4445,
    "\u00f6r": 4446,
    "\u2581calm": 4447,
    "46": 4448,
    "\u2581Daca": 4449,
    "71": 4450,
    "\u2581Dec": 4451,
    "\u2581Fo": 4452,
    "\u2581defense": 4453,
    "\u2581expectations": 4454,
    "\u2581Alle": 4455,
    "\u2581brief": 4456,
    "\u2581Hospital": 4457,
    "\u2581sides": 4458,
    "\u2581yellow": 4459,
    "lei": 4460,
    "\u2581speaking": 4461,
    "\u2581crucial": 4462,
    "\u2581Town": 4463,
    "\u2581married": 4464,
    "\u2581acesta": 4465,
    "\u2581noted": 4466,
    "\u2581Word": 4467,
    "\u2581conducted": 4468,
    "\u2581decor": 4469,
    "kon": 4470,
    "\u2581supplies": 4471,
    "\u2581adventure": 4472,
    "\u2581exhibition": 4473,
    "heit": 4474,
    "\u258136": 4475,
    "eria": 4476,
    "ines": 4477,
    "ological": 4478,
    "quel": 4479,
    "\u2581Van": 4480,
    "-19": 4481,
    "2,": 4482,
    "\u2581Band": 4483,
    "\u2581soil": 4484,
    "\u2581Tim": 4485,
    "\u2581NOT": 4486,
    "\u2581pilot": 4487,
    "\u2581Sh": 4488,
    "Ho": 4489,
    "CA": 4490,
    "\u2581Eu": 4491,
    "\u2581committee": 4492,
    "\u2581Store": 4493,
    "\u2581joint": 4494,
    "\u2581Op": 4495,
    "\u2581Jack": 4496,
    "quality": 4497,
    "\u2581Has": 4498,
    "\u2581wenig": 4499,
    "hood": 4500,
    "\u2581Class": 4501,
    "rus": 4502,
    "\u2581grown": 4503,
    "\u2581About": 4504,
    "\u2581sum": 4505,
    "\u2581Fair": 4506,
    "SA": 4507,
    "92": 4508,
    "\u2581fourth": 4509,
    "\u2581featured": 4510,
    "\u2581Pen": 4511,
    "\u2581nat\u00fcrlich": 4512,
    "ched": 4513,
    "\u2581ban": 4514,
    "anne": 4515,
    "\u2581theory": 4516,
    "bin": 4517,
    "iers": 4518,
    "\u2581strategic": 4519,
    "\u2581jours": 4520,
    "\u2581communicate": 4521,
    "\u2581pin": 4522,
    "\u2581Bon": 4523,
    "kom": 4524,
    "-5": 4525,
    "\u2581degrees": 4526,
    "\u2581entertainment": 4527,
    "ar\u0103": 4528,
    "ales": 4529,
    "\u2581pendant": 4530,
    "\u2581Series": 4531,
    "\u2581holds": 4532,
    "\u2581Mini": 4533,
    "\u2581Obama": 4534,
    "\u2581conform": 4535,
    "-10": 4536,
    "\u2581preparation": 4537,
    "\u2581autre": 4538,
    "\u2581mortgage": 4539,
    "\u2581Kan": 4540,
    "\u2581typical": 4541,
    "01": 4542,
    "\u2581Review": 4543,
    "\u2581laptop": 4544,
    "CR": 4545,
    "\u2581thread": 4546,
    "BS": 4547,
    "\u2581upper": 4548,
    "\u2581searching": 4549,
    "\u2581pen": 4550,
    "\u2581Middle": 4551,
    "73": 4552,
    "\u2581leg": 4553,
    "onic": 4554,
    "IS": 4555,
    "\u2581Kar": 4556,
    "anz": 4557,
    "\u2581circuit": 4558,
    "\u2581Casino": 4559,
    "07": 4560,
    "\u2581petit": 4561,
    "TV": 4562,
    "level": 4563,
    "\u2581Point": 4564,
    "rau": 4565,
    "\u2581cabinet": 4566,
    "\u2581failed": 4567,
    "\u2581stated": 4568,
    "LA": 4569,
    "\u2581privacy": 4570,
    "vol": 4571,
    "ativ": 4572,
    "\u2581matters": 4573,
    "\u2581Mor": 4574,
    "\u2581Ur": 4575,
    "view": 4576,
    "\u2581consultation": 4577,
    "TS": 4578,
    "\u2581apartment": 4579,
    "\u2581integrated": 4580,
    "74": 4581,
    "\u2581Through": 4582,
    "\u2581kick": 4583,
    "\u2581perioada": 4584,
    "\u2581entirely": 4585,
    "\u2581impossible": 4586,
    "\u2581consideration": 4587,
    "\u2581Alt": 4588,
    "\u2581Come": 4589,
    "\u2581outstanding": 4590,
    "83": 4591,
    "\u2581prezent": 4592,
    "\u2581Local": 4593,
    "\u2581Camp": 4594,
    "\u2581bear": 4595,
    "enden": 4596,
    "life": 4597,
    "\u2581Haus": 4598,
    "\u2581William": 4599,
    "\u201c,": 4600,
    "\u2581Instagram": 4601,
    "\u2581solve": 4602,
    "\u2581Ze": 4603,
    "\u2581everyday": 4604,
    "bla": 4605,
    "eng": 4606,
    "ough": 4607,
    "84": 4608,
    "?\"": 4609,
    "rely": 4610,
    "TH": 4611,
    "lang": 4612,
    "82": 4613,
    "\u2581removal": 4614,
    "al\u0103": 4615,
    "\u2581circumstances": 4616,
    "ente": 4617,
    "\u2581lieu": 4618,
    "\u25812016.": 4619,
    "\u2581ales": 4620,
    "\u2581pure": 4621,
    "\u2581choosing": 4622,
    "\u2581Russia": 4623,
    "amp": 4624,
    "\u2581Santa": 4625,
    "\u2581happening": 4626,
    "\u2581crew": 4627,
    "\u2581lei": 4628,
    "IP": 4629,
    "RO": 4630,
    "\u2581resort": 4631,
    "ened": 4632,
    "MB": 4633,
    "\u2581styles": 4634,
    "\u2581dernier": 4635,
    "uck": 4636,
    "\u2581Guide": 4637,
    "fic": 4638,
    "\u2581fitness": 4639,
    "\u2581healthcare": 4640,
    "mol": 4641,
    "\u2581vis": 4642,
    "\u2581atmosphere": 4643,
    "\u2581motion": 4644,
    "\u2581closer": 4645,
    "\u2581SA": 4646,
    "\u2581default": 4647,
    "\u2581architecture": 4648,
    "iile": 4649,
    "zel": 4650,
    "cla": 4651,
    "OP": 4652,
    "\u2581west": 4653,
    "\u2581Energy": 4654,
    "\u2581positions": 4655,
    "\u2581contrast": 4656,
    "\u2581serves": 4657,
    "cup": 4658,
    "\u2581rose": 4659,
    "pers": 4660,
    "\u2581noise": 4661,
    "mont": 4662,
    "#": 4663,
    "lies": 4664,
    "pat": 4665,
    "IC": 4666,
    "arc": 4667,
    "\u2581winner": 4668,
    "tent": 4669,
    "\u2581Preis": 4670,
    "\u2581vin": 4671,
    "blo": 4672,
    "\u021bie": 4673,
    "\u2581OR": 4674,
    "\u2581Buch": 4675,
    "\u2581nearby": 4676,
    "\u2581meetings": 4677,
    "\u258148": 4678,
    "\u2581quand": 4679,
    "\u2581usual": 4680,
    "\u2581weitere": 4681,
    "\u2581caught": 4682,
    "\u2581issued": 4683,
    "\u0219ti": 4684,
    "upcoming": 4685,
    "\u2581agreed": 4686,
    "place": 4687,
    "\u2581Brand": 4688,
    "\u2581relation": 4689,
    "\u2581at\u00e2t": 4690,
    "\u2581Tre": 4691,
    "\u2581lors": 4692,
    "\u2581adopt": 4693,
    "\u2581celui": 4694,
    "cken": 4695,
    "\u2581partnership": 4696,
    "?\u201d": 4697,
    "\u2581ba": 4698,
    "\u2581ID": 4699,
    "\u2581consistent": 4700,
    "\u2581Ya": 4701,
    "\u2581Academy": 4702,
    "cial": 4703,
    "1%": 4704,
    "\u2581mise": 4705,
    "\u2581gute": 4706,
    "gli": 4707,
    "\u2581Bu": 4708,
    "\u2581reduction": 4709,
    "acy": 4710,
    "aga": 4711,
    "\u2581Sc": 4712,
    "\u2581Informationen": 4713,
    "\u2581kommen": 4714,
    "press": 4715,
    "\u2581bridge": 4716,
    "\u2581qualified": 4717,
    "position": 4718,
    "\u2581combat": 4719,
    "!\"": 4720,
    "eva": 4721,
    "oase": 4722,
    "\u2581inner": 4723,
    "\u2581loans": 4724,
    "made": 4725,
    "\u2581Mexico": 4726,
    "\u2581formal": 4727,
    "\u2581fell": 4728,
    "91": 4729,
    "\u2581campus": 4730,
    "ienne": 4731,
    "\u2581framework": 4732,
    "ncing": 4733,
    "\u2581Para": 4734,
    "\u2581password": 4735,
    "\u2581sei": 4736,
    "\u2581Cross": 4737,
    "\u2581Ten": 4738,
    "bank": 4739,
    "\u2581gun": 4740,
    "ient": 4741,
    "\u2581usage": 4742,
    "\u2581(2": 4743,
    "Gra": 4744,
    "\u2581prea": 4745,
    "\u2581Als": 4746,
    "\u2581finance": 4747,
    "tate": 4748,
    "ition": 4749,
    "\u2581regulations": 4750,
    "\u2581Professional": 4751,
    "\u2581pl": 4752,
    "\u2581SEO": 4753,
    "\u2581trecut": 4754,
    "\u2581aller": 4755,
    "\u2581violence": 4756,
    "\u2581membership": 4757,
    "\u2581picked": 4758,
    "\u2581collected": 4759,
    "\u2581extended": 4760,
    "\u2581religious": 4761,
    "\u2581salle": 4762,
    "RA": 4763,
    "\u2581blend": 4764,
    "\u2581Min": 4765,
    "kal": 4766,
    "\u2581featuring": 4767,
    "\u2581researchers": 4768,
    "\u2581Search": 4769,
    "CE": 4770,
    "\u2581recognized": 4771,
    "\u2581semi": 4772,
    "\u2581exposure": 4773,
    "grew": 4774,
    "\u2581candidate": 4775,
    "\u2581shares": 4776,
    "\u2581edit": 4777,
    "CS": 4778,
    "\u2581Cl": 4779,
    "\u2581Enjoy": 4780,
    "\u2581hurt": 4781,
    "\u2581bottle": 4782,
    "\u2581Buy": 4783,
    "\u2581superior": 4784,
    "\u2581missed": 4785,
    "\u2581workshop": 4786,
    "action": 4787,
    "ple": 4788,
    "\u2581Schul": 4789,
    "\u2581houses": 4790,
    "\u25812017,": 4791,
    "\u2581killed": 4792,
    "\u2581calendar": 4793,
    "\u2581Mike": 4794,
    "FA": 4795,
    "nut": 4796,
    "\u2581establish": 4797,
    "\u2581alcohol": 4798,
    "\u2581closely": 4799,
    "\u2581MA": 4800,
    "pul": 4801,
    "\u2581defined": 4802,
    "aires": 4803,
    "\u2581Shi": 4804,
    "\u2581plays": 4805,
    "\u2581sister": 4806,
    "\u2581cable": 4807,
    "\u2581desk": 4808,
    "\u2581apoi": 4809,
    "\u2581identity": 4810,
    "\u2581stars": 4811,
    "\u2581fata": 4812,
    "\u2581obvious": 4813,
    "\u2581dental": 4814,
    "AM": 4815,
    "\u2581sharp": 4816,
    "duc": 4817,
    "\u2581manufacturer": 4818,
    "!)": 4819,
    "\u2581objects": 4820,
    "\u2581Ag": 4821,
    "referred": 4822,
    "\u2581Ak": 4823,
    "burg": 4824,
    "\u2581nouveau": 4825,
    "\u2581Pal": 4826,
    "\u2581Arbeits": 4827,
    "\u2581personally": 4828,
    "\u2581D\u00e9": 4829,
    "\u2581import": 4830,
    "\u2581justice": 4831,
    "\u2581photography": 4832,
    "\u2581portfolio": 4833,
    "56": 4834,
    "\u2581nouvelle": 4835,
    "\u2581oven": 4836,
    "\u2581400": 4837,
    "\u2581mixed": 4838,
    "\u2581relax": 4839,
    "\u2581imp": 4840,
    "\u2581\u00bb.": 4841,
    "\u2581mail": 4842,
    "rage": 4843,
    "nos": 4844,
    "\u2581drugs": 4845,
    "\u2581jede": 4846,
    "\u2581einige": 4847,
    "\u25818.": 4848,
    "ters": 4849,
    "\u2581electrical": 4850,
    "\u2581puis": 4851,
    "\u2581films": 4852,
    "41": 4853,
    "\u2581moral": 4854,
    "lage": 4855,
    "\u2581spaces": 4856,
    "\u2581Ed": 4857,
    "\u2581classroom": 4858,
    "\u2581gro\u00dfe": 4859,
    "\u2581baza": 4860,
    "face": 4861,
    "\u2581informed": 4862,
    "\u2581improving": 4863,
    "\u2581guidance": 4864,
    "\u2581gallery": 4865,
    "cular": 4866,
    "53": 4867,
    "Despite": 4868,
    "\u2581forme": 4869,
    "\u2581syst\u00e8me": 4870,
    "\u2581Win": 4871,
    "\u2581Small": 4872,
    "\u2581Mobile": 4873,
    "\u2581tape": 4874,
    "\u2581erhalten": 4875,
    "\u2581movies": 4876,
    "\u2581Unfortunately": 4877,
    "\u2581Looking": 4878,
    "\u2581guard": 4879,
    "\u2581pr": 4880,
    "\u2581confident": 4881,
    "BA": 4882,
    "bas": 4883,
    "hum": 4884,
    "ular": 4885,
    "\u2581Still": 4886,
    "\u2581flavor": 4887,
    "\u2581boost": 4888,
    "\u2581division": 4889,
    "ising": 4890,
    "\u2581monitoring": 4891,
    "\u2581Sen": 4892,
    "\u2581https": 4893,
    "mainly": 4894,
    "play": 4895,
    "\u2581dynamic": 4896,
    "\u2581coup": 4897,
    "\u2581carpet": 4898,
    "iner": 4899,
    "ral": 4900,
    "iser": 4901,
    "RC": 4902,
    "\u2581definition": 4903,
    "\u2581Za": 4904,
    "friendly": 4905,
    "43": 4906,
    "link": 4907,
    "\u2581Multi": 4908,
    "\u2581einmal": 4909,
    "\u2581stopped": 4910,
    "vel": 4911,
    "\u2581ongoing": 4912,
    "\u2581ancient": 4913,
    "take": 4914,
    "cia": 4915,
    "\u2581USB": 4916,
    "\u2581attorney": 4917,
    "\u2581slot": 4918,
    "\u2581Line": 4919,
    "rice": 4920,
    "ify": 4921,
    "\u00f3": 4922,
    "\u2581flash": 4923,
    "\u2581extension": 4924,
    "\u2581Ende": 4925,
    "\u2581powder": 4926,
    "easc\u0103": 4927,
    "03": 4928,
    "\u2581normally": 4929,
    "\u2581pun": 4930,
    "viewed": 4931,
    "ssen": 4932,
    "ache": 4933,
    "e\u0219te": 4934,
    "\u2581PA": 4935,
    "FI": 4936,
    "\u2581Frank": 4937,
    "\u2581apa": 4938,
    "\u2581coast": 4939,
    "\u2581boy": 4940,
    "lim": 4941,
    "\u2581putin": 4942,
    "\u2581script": 4943,
    "\u2581noticed": 4944,
    "\u2581dealing": 4945,
    "\u2581Trans": 4946,
    "\u2581border": 4947,
    "\u2581reputation": 4948,
    "-2": 4949,
    "HS": 4950,
    "\u2581supports": 4951,
    "\u2581horse": 4952,
    "nik": 4953,
    "\u2581clothes": 4954,
    "\u2581Card": 4955,
    "\u2581relief": 4956,
    "\u2581Visit": 4957,
    "\u2581luni": 4958,
    "81": 4959,
    "qua": 4960,
    "\u2581Comp": 4961,
    "\u2581investigation": 4962,
    "\u2581depth": 4963,
    "\u2581earned": 4964,
    "\u2581Ren": 4965,
    "\u2581Dumnezeu": 4966,
    "\u2581Joe": 4967,
    "\u2581goods": 4968,
    "\u2581Vol": 4969,
    "\u2581certified": 4970,
    "\u2581favor": 4971,
    "\u2581Scott": 4972,
    "\u2581protest": 4973,
    "\u2581pace": 4974,
    "\u2581Angeles": 4975,
    "inch": 4976,
    "\u2581charged": 4977,
    "code": 4978,
    "\u2581convenient": 4979,
    "\u2581Nord": 4980,
    "\u2581yesterday": 4981,
    "Dac\u0103": 4982,
    "\u2581Travel": 4983,
    "\u2581kid": 4984,
    "ction": 4985,
    "\u2581groupe": 4986,
    "pu": 4987,
    "bzw": 4988,
    "\u2581mixture": 4989,
    "\u2581Farm": 4990,
    "\u2581acces": 4991,
    "matic": 4992,
    "\u2581comparison": 4993,
    "reich": 4994,
    "pet": 4995,
    "\u2581lit": 4996,
    "\u2581organized": 4997,
    "just": 4998,
    "\u2581fellow": 4999,
    "Ver": 5000,
    "\u2581trends": 5001,
    "\u2581evaluation": 5002,
    "feld": 5003,
    "\u2581Pu": 5004,
    "\u2581equipped": 5005,
    "\u2581catre": 5006,
    "eck": 5007,
    "\u2581facing": 5008,
    "\u2581instrument": 5009,
    "\u2581pleased": 5010,
    "\u2581tap": 5011,
    "dom": 5012,
    "\u2581pump": 5013,
    "\u2581functional": 5014,
    "\u2581authority": 5015,
    "\u2581experiment": 5016,
    "LO": 5017,
    "\u2581scheduled": 5018,
    "halt": 5019,
    "\u2581ceiling": 5020,
    "\u2581Step": 5021,
    "\u2581orders": 5022,
    "\u2581speech": 5023,
    "\u2581stands": 5024,
    "\u2581disc": 5025,
    "\u2581rec": 5026,
    "\u2581Text": 5027,
    "\u2581banks": 5028,
    "\u2581oameni": 5029,
    "\u2581communications": 5030,
    "trag": 5031,
    "\u2581trail": 5032,
    "AN": 5033,
    "\u2581Federal": 5034,
    "\u2581quote": 5035,
    "\u2581spus": 5036,
    "\u2581managing": 5037,
    "\u2581booking": 5038,
    "\u2581Blog": 5039,
    "\u2581tank": 5040,
    "pon": 5041,
    "GE": 5042,
    "\u2581fiscal": 5043,
    "\u2581satisfaction": 5044,
    "cre": 5045,
    "\u2581protected": 5046,
    "\u2581enfants": 5047,
    "\u2581dort": 5048,
    "\u2581Mel": 5049,
    "\u2581turns": 5050,
    "\u2581savings": 5051,
    "\u2581voir": 5052,
    "\u2581Boston": 5053,
    "\u2581debate": 5054,
    "\u2581SO": 5055,
    "\u2581tables": 5056,
    "\u2581honest": 5057,
    "mate": 5058,
    "\u2581chart": 5059,
    "dec\u00e2t": 5060,
    "\u2581Radio": 5061,
    "54": 5062,
    "\u2581vol": 5063,
    "last": 5064,
    "\u2581tall": 5065,
    "\u2581Should": 5066,
    "\u2581sink": 5067,
    "\u2581Right": 5068,
    "\u2581male": 5069,
    "\u2581Modern": 5070,
    "\u2581indeed": 5071,
    "\u2581Garden": 5072,
    "\u2581Mod": 5073,
    "\u2581turning": 5074,
    "\u2581inches": 5075,
    "\u2581Police": 5076,
    "\u2581Pay": 5077,
    "UE": 5078,
    "m\u00e9": 5079,
    "EE": 5080,
    "\u2581cookies": 5081,
    "rip": 5082,
    "\u2581Motor": 5083,
    "\u2581lung": 5084,
    "\u2581Ap": 5085,
    "\u2581sustainable": 5086,
    "\u2581instant": 5087,
    "\u2581Rose": 5088,
    "\u2581Carolina": 5089,
    "\u2581Help": 5090,
    "IE": 5091,
    "\u2581Jersey": 5092,
    "\u2581Spanish": 5093,
    "\u2581wheel": 5094,
    "\u2581fishing": 5095,
    "gram": 5096,
    "\u2581ST": 5097,
    "\u2581Nov": 5098,
    "\u2581reporting": 5099,
    "ked": 5100,
    "\u2581Leben": 5101,
    "\u2581organisation": 5102,
    "\u2581tiny": 5103,
    "\u2581Alex": 5104,
    "\u2581obtained": 5105,
    "\u2581Acest": 5106,
    "\u2581dangerous": 5107,
    "utter": 5108,
    "\u2581rev": 5109,
    "Un": 5110,
    "\u2581revealed": 5111,
    "\u2581decade": 5112,
    "\u2581possibility": 5113,
    "service": 5114,
    "\u00e8": 5115,
    "\u2581Chief": 5116,
    "\u2581Durch": 5117,
    "\u2581cadre": 5118,
    "\u2581wearing": 5119,
    "sized": 5120,
    "LY": 5121,
    "\u2581unser": 5122,
    "\u25812016,": 5123,
    "\u2581fail": 5124,
    "iques": 5125,
    "\u2581Angel": 5126,
    "\u2581transportation": 5127,
    "\u2581dates": 5128,
    "\u2581danger": 5129,
    "\u2581forum": 5130,
    "zug": 5131,
    "\u2581filed": 5132,
    "loc": 5133,
    "\u00e9ri": 5134,
    "tribu": 5135,
    "\u2581entered": 5136,
    "\u2581porte": 5137,
    "\u2581arts": 5138,
    "\u2581reform": 5139,
    "\u2581Main": 5140,
    "\u2581dir": 5141,
    "\u2581approval": 5142,
    "\u2581juice": 5143,
    "vier": 5144,
    "\u2581nivel": 5145,
    "\u2581returns": 5146,
    "\u2581formed": 5147,
    "\u2581combine": 5148,
    "\u2581cours": 5149,
    "\u2581Standard": 5150,
    "\u2581certification": 5151,
    "escu": 5152,
    "\u2581achieved": 5153,
    "\u2581Model": 5154,
    "rul": 5155,
    "\u2581Tage": 5156,
    "\u2581injuries": 5157,
    "\u2581Sal": 5158,
    "\u2581expenses": 5159,
    "\u2581cet": 5160,
    "\u2581taxes": 5161,
    "diesen": 5162,
    "\u2581fairly": 5163,
    "\u2581Access": 5164,
    "wind": 5165,
    "IM": 5166,
    "ense": 5167,
    "\u2581hang": 5168,
    "\u2581citizens": 5169,
    "3%": 5170,
    "lum": 5171,
    "\u2581discussed": 5172,
    "AC": 5173,
    "\u2018": 5174,
    "\u2581Sol": 5175,
    "06": 5176,
    "stellen": 5177,
    "\u2581participation": 5178,
    "\u2581Box": 5179,
    "\u2581bieten": 5180,
    "\u2581Louis": 5181,
    "\u2581lessons": 5182,
    "\u2581visible": 5183,
    "\u2581Cam": 5184,
    "\u2581Ban": 5185,
    "\u2581Far": 5186,
    "\u2581travers": 5187,
    "\u2581telling": 5188,
    "\u2581magic": 5189,
    "\u2581Night": 5190,
    "\u2581judge": 5191,
    "\u2581Pat": 5192,
    "\u2581Southern": 5193,
    "OL": 5194,
    "fully": 5195,
    "\u2581acestea": 5196,
    "\u2581Order": 5197,
    "\u2581facut": 5198,
    "\u2581Matt": 5199,
    "registr": 5200,
    "\u2581Yet": 5201,
    "\u00df": 5202,
    "\u2581f\u0103cut": 5203,
    "\u2581versions": 5204,
    "\u2581Force": 5205,
    "rick": 5206,
    "\u2581rund": 5207,
    "ike": 5208,
    "\u2581Young": 5209,
    "\u2581ski": 5210,
    "CU": 5211,
    "\u2581Second": 5212,
    "\u2581graduate": 5213,
    "\u2581Bible": 5214,
    "\u2581vary": 5215,
    "\u2581celebration": 5216,
    "\u2581risks": 5217,
    "erii": 5218,
    "rance": 5219,
    "\u2581MP": 5220,
    "\u2581tale": 5221,
    "\u2581Ford": 5222,
    "\u2581attached": 5223,
    "\u2581Sy": 5224,
    "\u2581Ly": 5225,
    "stellung": 5226,
    "\u2581trop": 5227,
    "\u2581ann\u00e9es": 5228,
    "\u2581linked": 5229,
    "pit": 5230,
    "So": 5231,
    "\u0163e": 5232,
    "\u2581origin": 5233,
    "\u2581boys": 5234,
    "holder": 5235,
    "read": 5236,
    "\u2581relative": 5237,
    "\u2581industries": 5238,
    "making": 5239,
    "\u2581tun": 5240,
    "\u2581forced": 5241,
    "\u2581Welcome": 5242,
    "\u2581explained": 5243,
    "MP": 5244,
    "\u2581Three": 5245,
    "aza": 5246,
    "\u25811999": 5247,
    "\u2581erst": 5248,
    "RS": 5249,
    "\u2581attractive": 5250,
    "\u2581visited": 5251,
    "\u2581nom": 5252,
    "\u2581drum": 5253,
    "cast": 5254,
    "ogen": 5255,
    "\u2581tech": 5256,
    "\u2581Comment": 5257,
    "\u2581Little": 5258,
    "\u2581suggested": 5259,
    "\u2581gar": 5260,
    "\u2581crack": 5261,
    "\u2581shooting": 5262,
    "\u2581Try": 5263,
    "\u2581Remember": 5264,
    "\u2581folks": 5265,
    "\u2581MS": 5266,
    "\u2581Dia": 5267,
    "3)": 5268,
    "arbeit": 5269,
    "\u2581pepper": 5270,
    "zz": 5271,
    "\u2581extreme": 5272,
    "\u2581extrem": 5273,
    "\u2581severe": 5274,
    "\u2581networks": 5275,
    "p\u0103r": 5276,
    "sent": 5277,
    "\u2581structures": 5278,
    "\u2581Join": 5279,
    "\u2581privind": 5280,
    "\u2581marriage": 5281,
    "\u2581liegt": 5282,
    "eben": 5283,
    "\u2581produse": 5284,
    "\u2581tested": 5285,
    "\u2581Queen": 5286,
    "\u2581Tax": 5287,
    "rian": 5288,
    "\u2581Problem": 5289,
    "izat": 5290,
    "udi": 5291,
    "\u2581LA": 5292,
    "\u2581afford": 5293,
    "\u2581percentage": 5294,
    "\u2581cute": 5295,
    "\u2581gorgeous": 5296,
    "\u2581indoor": 5297,
    "\u2581configuration": 5298,
    "\u2581immediate": 5299,
    "\u2581exemple": 5300,
    "\u2581Being": 5301,
    "\u2581introduction": 5302,
    "ella": 5303,
    "bare": 5304,
    "\u2581besser": 5305,
    "\u2581Put": 5306,
    "gon": 5307,
    "\u2581Italy": 5308,
    "\u2581Thus": 5309,
    "tari": 5310,
    "0.000": 5311,
    "\u2581Price": 5312,
    "\u2581Trust": 5313,
    "\u2581contra": 5314,
    "\u2581layout": 5315,
    "\u2581Ireland": 5316,
    "ctor": 5317,
    "atoare": 5318,
    "pra": 5319,
    "rent": 5320,
    "\u2581Seite": 5321,
    "\u2581ori": 5322,
    "spiel": 5323,
    "\u2581Times": 5324,
    "primarily": 5325,
    "nov": 5326,
    "\u2581desired": 5327,
    "\u2581Would": 5328,
    "PL": 5329,
    "\u2581originally": 5330,
    "\u2581Ana": 5331,
    "EN": 5332,
    "\u2581occasion": 5333,
    "\u2581grant": 5334,
    "igkeit": 5335,
    "\u2581scheme": 5336,
    "\u25812015.": 5337,
    "izare": 5338,
    "gate": 5339,
    "\u2581poker": 5340,
    "pping": 5341,
    "\u2581Wild": 5342,
    "\u2581YouTube": 5343,
    "\u2581assume": 5344,
    "\u0441": 5345,
    "\u2581rapport": 5346,
    "\u2581labor": 5347,
    "teur": 5348,
    "\u2581genre": 5349,
    "\u2581plat": 5350,
    "\u2581listening": 5351,
    "sky": 5352,
    "\u2581neighborhood": 5353,
    "\u25813-": 5354,
    "\u2581Library": 5355,
    "agit": 5356,
    "\u2581platforms": 5357,
    "bei": 5358,
    "AB": 5359,
    "\u2581manufacturers": 5360,
    "\u2581printing": 5361,
    "\u2581crisis": 5362,
    "\u2581Smart": 5363,
    "\u2581drawing": 5364,
    "MO": 5365,
    "\u2581durable": 5366,
    "chant": 5367,
    "\u2581chemical": 5368,
    "\u2581savoir": 5369,
    "\u2581Max": 5370,
    "gestellt": 5371,
    "\u2581rural": 5372,
    "52": 5373,
    "\u2581invited": 5374,
    "\u2581fil": 5375,
    "\u2581Rob": 5376,
    "\u2581Bell": 5377,
    "\u2581neck": 5378,
    "pac": 5379,
    "wal": 5380,
    "\u2581l\u00e0": 5381,
    "\u2581Virginia": 5382,
    "\u2581applicable": 5383,
    "\u2581abuse": 5384,
    "aide": 5385,
    "\u2581increases": 5386,
    "\u2581moi": 5387,
    "\u2581Non": 5388,
    "\u2581Produkt": 5389,
    "FC": 5390,
    "\u2581shops": 5391,
    "\u2581prendre": 5392,
    "atul": 5393,
    "\u2581sal": 5394,
    "\u2581soci\u00e9t\u00e9": 5395,
    "\u2581Hot": 5396,
    "rim": 5397,
    "gue": 5398,
    "\u2581enterprise": 5399,
    "\u258133": 5400,
    "mittel": 5401,
    "ged": 5402,
    "\u2581formula": 5403,
    "\u2581spin": 5404,
    "als": 5405,
    "2%": 5406,
    "bon": 5407,
    "\u2581Executive": 5408,
    "\u2581wirklich": 5409,
    "\u00eel": 5410,
    "1.": 5411,
    "\u2581Arm": 5412,
    "\u2581rid": 5413,
    "aries": 5414,
    "\u2581incident": 5415,
    "\u2581copii": 5416,
    "\u2581Charles": 5417,
    "\u2581meals": 5418,
    "\u2581wireless": 5419,
    "Ex": 5420,
    "\u2581Financial": 5421,
    "\u2581AM": 5422,
    "\u2581fest": 5423,
    "\u2581Ol": 5424,
    "oir": 5425,
    "300": 5426,
    "\u2581punct": 5427,
    "\u2581Mad": 5428,
    "\u2581Ali": 5429,
    "lag": 5430,
    "\u2581ocean": 5431,
    "\u2581mirror": 5432,
    "\u2581Additionally": 5433,
    "alia": 5434,
    "\u2581county": 5435,
    "\u2581hip": 5436,
    "dale": 5437,
    "\u2581Stra": 5438,
    "\u2581drag": 5439,
    "\u2581Sand": 5440,
    "\u2581historic": 5441,
    "i\u00e8re": 5442,
    "\u2581examine": 5443,
    "soci": 5444,
    "ime": 5445,
    "\u2581Insurance": 5446,
    "\u2581crime": 5447,
    "\u2581pare": 5448,
    "\u2581craft": 5449,
    "\u2581Building": 5450,
    "mission": 5451,
    "\u2581Americans": 5452,
    "\u2581mg": 5453,
    "\u2581passage": 5454,
    "\u2581deposit": 5455,
    "\u2581widely": 5456,
    "nch": 5457,
    "\u2581Coast": 5458,
    "\u2581recipes": 5459,
    "\u2581Ziel": 5460,
    "\u2581duty": 5461,
    "\u2581gerne": 5462,
    "most": 5463,
    "\u2581argument": 5464,
    "\u2581root": 5465,
    "\u2581consult": 5466,
    "\u2581muscle": 5467,
    "\u2581spoke": 5468,
    "\u2581Cum": 5469,
    "\u2581orange": 5470,
    "\u2581reader": 5471,
    "schw": 5472,
    "\u2581commission": 5473,
    "histoire": 5474,
    "\u2581represents": 5475,
    "\u2581meilleur": 5476,
    "\u258110.": 5477,
    "HA": 5478,
    "\u2581Systems": 5479,
    "\u2581blind": 5480,
    "\u2581HP": 5481,
    "\u2581doi": 5482,
    "\u2581signature": 5483,
    "\u2581invite": 5484,
    "\u2581Samsung": 5485,
    "\u2581liber": 5486,
    "\u2581letters": 5487,
    "\u2581primul": 5488,
    "\u2581losing": 5489,
    "resulting": 5490,
    "\u2581Computer": 5491,
    "\u2581poll": 5492,
    "rile": 5493,
    "TI": 5494,
    "\u2581cur": 5495,
    "\u2581fonction": 5496,
    "gat": 5497,
    "AA": 5498,
    "tiv": 5499,
    "\u2581Str": 5500,
    "e\u0219ti": 5501,
    "\u2581officer": 5502,
    "reducing": 5503,
    "\u2581gifts": 5504,
    "\u2581performing": 5505,
    "\u2581\u00bb,": 5506,
    "\u2581guitar": 5507,
    "\u2581segment": 5508,
    "\u2581Tar": 5509,
    "\u2581ultimately": 5510,
    "\u2581cam": 5511,
    "\u2581Arbeit": 5512,
    "\u2581accessories": 5513,
    "bad": 5514,
    "home": 5515,
    "\u2581clip": 5516,
    "range": 5517,
    "CM": 5518,
    "\u2581printed": 5519,
    "\u2581Pet": 5520,
    "\u2581attract": 5521,
    "date": 5522,
    "\u2581Senior": 5523,
    "\u2581genau": 5524,
    "num": 5525,
    "\u2581attended": 5526,
    "\u2581Turn": 5527,
    "\u2581History": 5528,
    "some": 5529,
    "\u2581describe": 5530,
    "\u2581Lee": 5531,
    "\u2581Fre": 5532,
    "\u2581league": 5533,
    "new": 5534,
    "tors": 5535,
    "\u2581storm": 5536,
    "\u2581Beispiel": 5537,
    "\u2581index": 5538,
    "\u2581awarded": 5539,
    "state": 5540,
    "\u25811990": 5541,
    "\u2581ends": 5542,
    "kor": 5543,
    "far": 5544,
    "\u2581Page": 5545,
    "\u2581promotion": 5546,
    "\u2581weekly": 5547,
    "400": 5548,
    "iuni": 5549,
    "\u2581Summer": 5550,
    "\u2581thin": 5551,
    "\u2581daf\u00fcr": 5552,
    "51": 5553,
    "PR": 5554,
    "\u2581Hy": 5555,
    "gas": 5556,
    "\u2581atat": 5557,
    "\u2581mining": 5558,
    "\u2581principles": 5559,
    "gent": 5560,
    "ika": 5561,
    "\u2581religion": 5562,
    "\u2581ordered": 5563,
    "\u2581developers": 5564,
    "\u2581pleasure": 5565,
    "vit": 5566,
    "mers": 5567,
    "\u2581Section": 5568,
    "\u2581por": 5569,
    "\u2581Name": 5570,
    "\u2581pink": 5571,
    "dig": 5572,
    "\u2581eligible": 5573,
    "\u2581Happy": 5574,
    "\u2581fo": 5575,
    "\u2581availability": 5576,
    "GO": 5577,
    "\u2581Europa": 5578,
    "\u2581Unit": 5579,
    "\u25811000": 5580,
    "\u2581Berg": 5581,
    "fini": 5582,
    "\u2581$3": 5583,
    "iza": 5584,
    "\u2581promo": 5585,
    "\u2581Low": 5586,
    "abord": 5587,
    "\u00e4h": 5588,
    "\u2581Professor": 5589,
    "\u2581array": 5590,
    "\u2581hate": 5591,
    "\u2581recording": 5592,
    "RI": 5593,
    "\u2581proof": 5594,
    "lay": 5595,
    "DE": 5596,
    "\u2581surprised": 5597,
    "\u2581boxes": 5598,
    "\u2581noastre": 5599,
    "zie": 5600,
    "\u2581\u00eens\u0103": 5601,
    "\u2581ajuta": 5602,
    "\u2581weil": 5603,
    "\u2581whenever": 5604,
    "shi": 5605,
    "satz": 5606,
    "\u2581remind": 5607,
    "\u2581consist": 5608,
    "\u2581motiv": 5609,
    "\u2581PS": 5610,
    "\u2581trois": 5611,
    "pad": 5612,
    "\u2581besten": 5613,
    "\u2581Stone": 5614,
    "itz": 5615,
    "fit": 5616,
    "\u2581Mountain": 5617,
    "OC": 5618,
    "\u2581depends": 5619,
    "\u2581Cover": 5620,
    "\u2581bags": 5621,
    "\u2581Bel": 5622,
    "\u2581Engineering": 5623,
    "\u2581flower": 5624,
    "\u2581gratuit": 5625,
    "\u2581smartphone": 5626,
    "stan": 5627,
    "spect": 5628,
    "SL": 5629,
    "sho": 5630,
    "\u2581Ser": 5631,
    "\u2581Perhaps": 5632,
    "\u2581codes": 5633,
    "\u2581Wind": 5634,
    "aient": 5635,
    "\u2581Prin": 5636,
    "\u2581(1)": 5637,
    "\u2581figures": 5638,
    "\u2581ausge": 5639,
    "\u2581episode": 5640,
    "\u2581Spa": 5641,
    "\u2581Silver": 5642,
    "\u2581Sky": 5643,
    "\u2581capabilities": 5644,
    "\u2581Uni": 5645,
    "\u2581\u00eenc\u0103": 5646,
    "TO": 5647,
    "\u2581Hal": 5648,
    "ghi": 5649,
    "\u2581sofa": 5650,
    "hard": 5651,
    "\u2581FOR": 5652,
    "\u2581Ber": 5653,
    "\u2581firms": 5654,
    "\u2581memories": 5655,
    "\u2581lift": 5656,
    "\u2581sending": 5657,
    "\u2581narrow": 5658,
    "\u2581Steve": 5659,
    "\u2581integration": 5660,
    "known": 5661,
    "\u2581nostru": 5662,
    "i\u0163i": 5663,
    "\u2581Georgia": 5664,
    "\u2581slowly": 5665,
    "iere": 5666,
    "aka": 5667,
    "PE": 5668,
    "\u2581venue": 5669,
    "jar": 5670,
    "buch": 5671,
    "rad": 5672,
    "\u2581resistance": 5673,
    "\u2581stehen": 5674,
    "chin": 5675,
    "\u2581weak": 5676,
    "\u2581DVD": 5677,
    "\u2581bodies": 5678,
    "\u2581split": 5679,
    "What": 5680,
    "setzen": 5681,
    "\u2581loves": 5682,
    "\u2581kleine": 5683,
    "\u2581increasingly": 5684,
    "\u2581alert": 5685,
    "\u2581AC": 5686,
    "\u2581partir": 5687,
    "\u2581ratio": 5688,
    "\u2581keeps": 5689,
    "\u2581Area": 5690,
    "\u2581donn\u00e9es": 5691,
    "\u2581flag": 5692,
    "\u2581NO": 5693,
    "\u2581hotels": 5694,
    "\u2581debut": 5695,
    "\u2581suffer": 5696,
    "\u2581hidden": 5697,
    "\u2581clothing": 5698,
    "\u2581household": 5699,
    "medi": 5700,
    "\u2581reste": 5701,
    "bro": 5702,
    "\u2581Bus": 5703,
    "\u2581Ken": 5704,
    "IR": 5705,
    "\u2581suffering": 5706,
    "\u2581publication": 5707,
    "\u2581Mat": 5708,
    "\u2581impression": 5709,
    "\u2581founded": 5710,
    "\u2581stable": 5711,
    "\u2581promise": 5712,
    "\u2581Cloud": 5713,
    "\u2581prison": 5714,
    "cor": 5715,
    "\u2581Sports": 5716,
    "\u2581erste": 5717,
    "shire": 5718,
    "\u2581recommendations": 5719,
    "\u2581permit": 5720,
    "\u2581tomorrow": 5721,
    "\u2581lucky": 5722,
    "\u2581realized": 5723,
    "\u2581famille": 5724,
    "\u2581Zealand": 5725,
    "\u2581wooden": 5726,
    "\u2581east": 5727,
    "\u2581Bereich": 5728,
    "w\u00e4hrend": 5729,
    "rite": 5730,
    "\u2581fla": 5731,
    "platz": 5732,
    "\u2581zero": 5733,
    "\u2581priority": 5734,
    "\u2581Airport": 5735,
    "\u2581Kauf": 5736,
    "\u2581ultimate": 5737,
    "\u2581chest": 5738,
    "\u2581tone": 5739,
    "\u2581Kal": 5740,
    "\u2581supposed": 5741,
    "\u2581vedere": 5742,
    "\u258150%": 5743,
    "\u2581Ger": 5744,
    "pack": 5745,
    "\u2581priv": 5746,
    "\u2581Kit": 5747,
    "\u2581tent": 5748,
    "\u2581guidelines": 5749,
    "\u2581Republic": 5750,
    "including": 5751,
    "\u2581chief": 5752,
    "\u2581Living": 5753,
    "keit": 5754,
    "\u2581convert": 5755,
    "tail": 5756,
    "orient": 5757,
    "eigenen": 5758,
    "\u2581soup": 5759,
    "\u2581zona": 5760,
    "\u2581composition": 5761,
    "\u2581Bob": 5762,
    "\u2581exception": 5763,
    "\u2581cr": 5764,
    "\u2581str": 5765,
    "\u2581Fl": 5766,
    "AT": 5767,
    "kel": 5768,
    "\u2581pricing": 5769,
    "\u2581Mass": 5770,
    "vir": 5771,
    "leg": 5772,
    "\u2581rating": 5773,
    "\u2581Sale": 5774,
    "\u2581somewhere": 5775,
    "\u2581submitted": 5776,
    "\u2581Pop": 5777,
    "\u2581papers": 5778,
    "\u2581authorities": 5779,
    "\u2581Person": 5780,
    "\u2581kill": 5781,
    "\u2581suggestions": 5782,
    "-6": 5783,
    "\u2581dust": 5784,
    "taire": 5785,
    "\u2581recognition": 5786,
    "3.": 5787,
    "\u2581Mont": 5788,
    "\u2581produit": 5789,
    "\u2581transmission": 5790,
    "\u2581Th": 5791,
    "\u2581passing": 5792,
    "\u2581Partner": 5793,
    "\u2581dire": 5794,
    "\u2581DC": 5795,
    "\u2581sky": 5796,
    "\u2581Kitchen": 5797,
    "\u2581fluid": 5798,
    "\u2581scored": 5799,
    "\u2581chapter": 5800,
    "If": 5801,
    "letzten": 5802,
    "\u2581officers": 5803,
    "\u2581avem": 5804,
    "ister": 5805,
    "\u2581involves": 5806,
    "ico": 5807,
    "bur": 5808,
    "\u2581mieux": 5809,
    "\u2581Photo": 5810,
    "\u2581Cro": 5811,
    "\u2581professor": 5812,
    "\u2581besonders": 5813,
    "\u0434": 5814,
    "\u2581alongside": 5815,
    "\u2581stored": 5816,
    "\u2581activ": 5817,
    "\u2581setup": 5818,
    "\u2581extract": 5819,
    "\u2581accent": 5820,
    "\u2581replaced": 5821,
    "tec": 5822,
    "\u2581Natur": 5823,
    "\u2581Pacific": 5824,
    "\u2581NY": 5825,
    "\u2581Capital": 5826,
    "\u2581forest": 5827,
    "incredibly": 5828,
    "\u2581choix": 5829,
    "\u2581seriously": 5830,
    "\u2581konnte": 5831,
    "\u25812014.": 5832,
    "ensuring": 5833,
    "\u2581handling": 5834,
    "\u25819.": 5835,
    "\u2581relations": 5836,
    "\u2581Kom": 5837,
    "\u2581Hol": 5838,
    "\u2581none": 5839,
    "rob": 5840,
    "\u2581Forum": 5841,
    "hour": 5842,
    "\u00e8me": 5843,
    "\u2581Space": 5844,
    "\u2581Ham": 5845,
    "rap": 5846,
    "\u2581Michigan": 5847,
    "km": 5848,
    "\u2581utilize": 5849,
    "lov": 5850,
    "\u2581luck": 5851,
    "l\u00e4": 5852,
    "\u2581healing": 5853,
    "\u2581neu": 5854,
    "aging": 5855,
    "\u2581compliance": 5856,
    "\u2581vertical": 5857,
    "\u2581FREE": 5858,
    "\u2581differences": 5859,
    "\u2581Server": 5860,
    "\u2581estimated": 5861,
    "schutz": 5862,
    "\u2581notamment": 5863,
    "\u2581120": 5864,
    "72": 5865,
    "\u2581heating": 5866,
    "late": 5867,
    "\u2581younger": 5868,
    "\u2581Intel": 5869,
    "\u2581salad": 5870,
    "\u2581commonly": 5871,
    "\u2581treatments": 5872,
    "\u2581speaker": 5873,
    "\u2581producing": 5874,
    "\u2581eggs": 5875,
    "\u2581Spirit": 5876,
    "\u2581beide": 5877,
    "\u2581transaction": 5878,
    "\u2581Machine": 5879,
    "\u2581Games": 5880,
    "\u2581niveau": 5881,
    "\u2581Need": 5882,
    "radi": 5883,
    "mir": 5884,
    "causing": 5885,
    "\u2581d\u00e9but": 5886,
    "\u2581rencontre": 5887,
    "\u2581threat": 5888,
    "\u2581enjoying": 5889,
    "Com": 5890,
    "\u2581Johnson": 5891,
    "\u2581tournament": 5892,
    "\u2581Micro": 5893,
    "\u2581Drive": 5894,
    "\u2581Cre": 5895,
    "\u2581Lebens": 5896,
    "\u2581categories": 5897,
    "5,000": 5898,
    "\u2581confirmed": 5899,
    "pli": 5900,
    "\u2581Francisco": 5901,
    "\u2581raw": 5902,
    "\u2581managers": 5903,
    "\u0163ie": 5904,
    "UR": 5905,
    "\u2581aproape": 5906,
    "via": 5907,
    "\u2581engaged": 5908,
    "\u2581parti": 5909,
    "\u2581posting": 5910,
    "CO": 5911,
    "\u2581bois": 5912,
    "\u2581inch": 5913,
    "vie": 5914,
    "\u2581aside": 5915,
    "\u2581exceptional": 5916,
    "\u2581vintage": 5917,
    "\u2581Him": 5918,
    "\u2581expansion": 5919,
    "\u2581Weg": 5920,
    "\u2581authors": 5921,
    "\u2581deine": 5922,
    "\u2581Prime": 5923,
    "\u2581scan": 5924,
    "\u2581reg": 5925,
    "\u021bia": 5926,
    "riv": 5927,
    "selon": 5928,
    "\u2581Studio": 5929,
    "\u2581dich": 5930,
    "\u2581vi": 5931,
    "\u2581sequence": 5932,
    "\u2581Four": 5933,
    "RT": 5934,
    "\u2581ihn": 5935,
    "\u2581employ": 5936,
    "umb": 5937,
    "it\u0103": 5938,
    "\u2581Station": 5939,
    "\u2581upload": 5940,
    "\u2581upgrade": 5941,
    "\u2581exterior": 5942,
    "\u2581writers": 5943,
    "\u2581plot": 5944,
    "\u2581Gen": 5945,
    "TER": 5946,
    "-12": 5947,
    "http": 5948,
    "\u2581smell": 5949,
    "post": 5950,
    "von": 5951,
    "mili": 5952,
    "8%": 5953,
    "\u2581Andrew": 5954,
    "\u2581spun": 5955,
    "\u2581grass": 5956,
    "unter": 5957,
    "\u2581burn": 5958,
    "\u2581Gegen": 5959,
    "fest": 5960,
    "\u2581Northern": 5961,
    "\u2581consumption": 5962,
    "\u2581bird": 5963,
    "\u2581Miss": 5964,
    "anti": 5965,
    "\u2581viata": 5966,
    "bereich": 5967,
    "\u2581Change": 5968,
    "\u2581pouvoir": 5969,
    "\u2581demonstrate": 5970,
    "\u2581requirement": 5971,
    "BI": 5972,
    "ied": 5973,
    "\u2581spray": 5974,
    "\u2581calitate": 5975,
    "\u2581souvent": 5976,
    "\u2581samples": 5977,
    "\u2581compete": 5978,
    "ank": 5979,
    "ann\u00e9e": 5980,
    "wick": 5981,
    "iff": 5982,
    "noi": 5983,
    "ography": 5984,
    "\u2581SE": 5985,
    "\u2581250": 5986,
    "\u2581wealth": 5987,
    "4%": 5988,
    "\u2581swimming": 5989,
    "enne": 5990,
    "Qu": 5991,
    "\u2581connections": 5992,
    "onne": 5993,
    "\u2581Way": 5994,
    "voll": 5995,
    "\u2581extent": 5996,
    "\u2581objective": 5997,
    "\u2581clinic": 5998,
    "NA": 5999,
    "\u2581Hope": 6000,
    "\u2581coat": 6001,
    "\u2581depend": 6002,
    "\u2581tine": 6003,
    "acc": 6004,
    "\u2581editor": 6005,
    "\u2581Jim": 6006,
    "600": 6007,
    "\u2581module": 6008,
    "\u2581deja": 6009,
    "atur": 6010,
    "\u2581maintaining": 6011,
    "\u2581hoch": 6012,
    "\u2581covering": 6013,
    "vielen": 6014,
    "hem": 6015,
    "\u2581illegal": 6016,
    "\u2581certificate": 6017,
    "\u2581collective": 6018,
    "\u2581blow": 6019,
    "\u2581programming": 6020,
    "HE": 6021,
    "\u2581Division": 6022,
    "\u2581ceux": 6023,
    "\u2581saved": 6024,
    "\u2581worst": 6025,
    "\u2581arms": 6026,
    "\u2581Officer": 6027,
    "\u2581association": 6028,
    "ington": 6029,
    "\u2581belle": 6030,
    "tting": 6031,
    "\u2581attacks": 6032,
    "\u2581vei": 6033,
    "\u2581gerade": 6034,
    "\u2581strain": 6035,
    "\u2581offices": 6036,
    "EM": 6037,
    "EST": 6038,
    "-8": 6039,
    "\u2581faculty": 6040,
    "\u2581Plant": 6041,
    "pla": 6042,
    "card": 6043,
    "\u2581loose": 6044,
    "\u2581PR": 6045,
    "profit": 6046,
    "\u2581channels": 6047,
    "ATE": 6048,
    "atic": 6049,
    "wegen": 6050,
    "word": 6051,
    "\u2581sehen": 6052,
    "\u2581nombre": 6053,
    "\u2581DO": 6054,
    "\u2581hoping": 6055,
    "\u2581wollen": 6056,
    "\u2581decat": 6057,
    "IF": 6058,
    "\u2581permission": 6059,
    "\u2581Williams": 6060,
    "\u2581beer": 6061,
    "\u2581derni\u00e8re": 6062,
    "\u2581purchasing": 6063,
    "\u2581pride": 6064,
    "solv": 6065,
    "ego": 6066,
    "\u2581Oil": 6067,
    "\u2581dishes": 6068,
    "\u2581Baby": 6069,
    "\u2581Roll": 6070,
    "vez": 6071,
    "\u2581drept": 6072,
    "lly": 6073,
    "\u2581potrivit": 6074,
    "person": 6075,
    "\u2581interactive": 6076,
    "\u2581brilliant": 6077,
    "\u2581000": 6078,
    "\u2581giant": 6079,
    "\u2581plain": 6080,
    "\u2581lock": 6081,
    "\u2581inspection": 6082,
    "\u2581symbol": 6083,
    "\u2581Gal": 6084,
    "\u2581concepts": 6085,
    "\u2581venture": 6086,
    "\u2581Tr": 6087,
    "\u2581Color": 6088,
    "\u2581behalf": 6089,
    "ink": 6090,
    "atii": 6091,
    "wie": 6092,
    "\u2581stream": 6093,
    "\u2581buyers": 6094,
    "legen": 6095,
    "iness": 6096,
    "\u2581absolute": 6097,
    "\u2581council": 6098,
    "\u2581displayed": 6099,
    "\u2581Bun": 6100,
    "\u2581darauf": 6101,
    "\u2581rod": 6102,
    "\u2581repeat": 6103,
    "quelle": 6104,
    "lation": 6105,
    "gul": 6106,
    "\u2581compensation": 6107,
    "\u2581string": 6108,
    "\u2581joining": 6109,
    "\u2581Pra": 6110,
    "hab": 6111,
    "\u2581plane": 6112,
    "\u2581conversion": 6113,
    "\u2581lesson": 6114,
    "bound": 6115,
    "\u2581seats": 6116,
    "voc": 6117,
    "\u2581Disney": 6118,
    "esse": 6119,
    "\u2581awards": 6120,
    "\u2581initiative": 6121,
    "UM": 6122,
    "\u2581intelligence": 6123,
    "\u2581laser": 6124,
    "\u00e4n": 6125,
    "\u2581generated": 6126,
    "\u2581allen": 6127,
    "\u2581Aug": 6128,
    "lini": 6129,
    "\u2581Update": 6130,
    "\u2581grab": 6131,
    "\u2581Bridge": 6132,
    "rock": 6133,
    "hold": 6134,
    "seinen": 6135,
    "\u2581false": 6136,
    "type": 6137,
    "\u2581outcome": 6138,
    "\u2581crazy": 6139,
    "\u2581Platz": 6140,
    "\u2581believed": 6141,
    "\u2581adjust": 6142,
    "\u2581entrance": 6143,
    "\u2581Colorado": 6144,
    "\u2581concentration": 6145,
    "aid": 6146,
    "\u2581regardless": 6147,
    "\u2581mici": 6148,
    "\u2581potentially": 6149,
    "\u2581Custom": 6150,
    "rag": 6151,
    "\u2581employer": 6152,
    "tagged": 6153,
    "\u258134": 6154,
    "fro": 6155,
    "\u2581Pas": 6156,
    "\u2581AS": 6157,
    "PP": 6158,
    "stru": 6159,
    "gr\u00e2ce": 6160,
    "\u2581anyway": 6161,
    "\u2581streets": 6162,
    "\u2581Region": 6163,
    "\u2581newly": 6164,
    "\u2581assistant": 6165,
    "\u2581requests": 6166,
    "\u2581Ohio": 6167,
    "\u2581continuing": 6168,
    "\u2581\u00eem": 6169,
    "7%": 6170,
    "\u2581basically": 6171,
    "gabe": 6172,
    "\u2581ultra": 6173,
    "pic": 6174,
    "\u2581jeder": 6175,
    "\u2581Cook": 6176,
    "\u2581tie": 6177,
    "\u2581yard": 6178,
    "\u2581wash": 6179,
    "\u25813,": 6180,
    "\u2581exista": 6181,
    "\u2581egg": 6182,
    "\u2581march\u00e9": 6183,
    "kommen": 6184,
    "\u2581Select": 6185,
    "geben": 6186,
    "\u2581Joseph": 6187,
    "\u2581Ces": 6188,
    "\u2581hundred": 6189,
    "even": 6190,
    "gal": 6191,
    "800": 6192,
    "\u2581Jones": 6193,
    "ova": 6194,
    "\u2581careful": 6195,
    "\u2581alarm": 6196,
    "NI": 6197,
    "\u2581residence": 6198,
    "\u2581w\u00e4re": 6199,
    "\u2581Dor": 6200,
    "\u2581amounts": 6201,
    "\u2581mistake": 6202,
    "ates": 6203,
    "\u2581bune": 6204,
    "\u2581vegetables": 6205,
    "\u2581Ann": 6206,
    "logical": 6207,
    "stadt": 6208,
    "\u2581chances": 6209,
    "%)": 6210,
    "\u2581minimal": 6211,
    "\u2581naturally": 6212,
    "\u2581Geld": 6213,
    "\u2581Yu": 6214,
    "\u2581wrap": 6215,
    "rest": 6216,
    "\u2581legs": 6217,
    "PM": 6218,
    "\u2581Heart": 6219,
    "\u2581suspect": 6220,
    "Go": 6221,
    "\u2581Fil": 6222,
    "\u2581YOU": 6223,
    "\u2581victory": 6224,
    "pun": 6225,
    "\u2581Zo": 6226,
    "CT": 6227,
    "\u2581trim": 6228,
    "\u2581stuck": 6229,
    "ators": 6230,
    "\u2581Ideas": 6231,
    "\u2581voyage": 6232,
    "\u2581Restaurant": 6233,
    "\u2581pat": 6234,
    "\u2581bond": 6235,
    "\u2581Del": 6236,
    "\u2581fighting": 6237,
    "\u2581concerning": 6238,
    "\u2581etwa": 6239,
    "\u2581Thema": 6240,
    "\u2581preferred": 6241,
    "\u2581pitch": 6242,
    "\u2581Singapore": 6243,
    "\u2581tub": 6244,
    "FT": 6245,
    "\u2581Product": 6246,
    "\u2581applying": 6247,
    "\u2581Fr": 6248,
    "\u0163a": 6249,
    "\u2581iPad": 6250,
    "PD": 6251,
    "\u2581comun": 6252,
    "\u2581pie": 6253,
    "rank": 6254,
    "tron": 6255,
    "\u2581pest": 6256,
    "\u2581herself": 6257,
    "\u2581intense": 6258,
    "foot": 6259,
    "\u25811998": 6260,
    "\u2581anxiety": 6261,
    "\u2581portable": 6262,
    "\u2581harm": 6263,
    "\u2581admit": 6264,
    "sted": 6265,
    "\u2581regions": 6266,
    "cie": 6267,
    "\u2581robust": 6268,
    "\u2581stem": 6269,
    "\u2581roles": 6270,
    "\u2581Latin": 6271,
    "\u2581R\u00e9": 6272,
    "\u2581ref": 6273,
    "isme": 6274,
    "\u2581contribution": 6275,
    "\u2581forever": 6276,
    "\u2581frei": 6277,
    "\u2581mont": 6278,
    "that": 6279,
    "\u2581sensitive": 6280,
    "\u2581wider": 6281,
    "AF": 6282,
    "\u2581liability": 6283,
    "\u0163iei": 6284,
    "\u2581Cho": 6285,
    "aria": 6286,
    "rang": 6287,
    "\u2581Account": 6288,
    "\u2581III": 6289,
    "\u2581tooth": 6290,
    "\u2581factory": 6291,
    "\u2581dropped": 6292,
    "horn": 6293,
    "RP": 6294,
    "\u2581container": 6295,
    "fran": 6296,
    "\u2581lawyer": 6297,
    "\u2581Image": 6298,
    "HO": 6299,
    "\u2581incorporate": 6300,
    "\u2581lume": 6301,
    "GA": 6302,
    "itati": 6303,
    "autre": 6304,
    "ierten": 6305,
    "[": 6306,
    "\u2581packages": 6307,
    "\u2581Simon": 6308,
    "\u2581somewhat": 6309,
    "mbo": 6310,
    "lite": 6311,
    "\u2581eliminate": 6312,
    "\u2581decrease": 6313,
    "\u2581geben": 6314,
    "\u2581approaches": 6315,
    "\u2581tissue": 6316,
    "\u2581personne": 6317,
    "ional": 6318,
    "unable": 6319,
    "\u2581Case": 6320,
    "hill": 6321,
    "och": 6322,
    "\u2581minister": 6323,
    "\u2581Rad": 6324,
    "\u2581yoga": 6325,
    "\u2581encounter": 6326,
    "text": 6327,
    "\u2581OS": 6328,
    "\u2581opera": 6329,
    "\u2581loving": 6330,
    "\u2581birds": 6331,
    "\u2581prim": 6332,
    "easca": 6333,
    "park": 6334,
    "f\u00fc": 6335,
    "\u2581champion": 6336,
    "\u2581warning": 6337,
    "DC": 6338,
    "\u2581yield": 6339,
    "raum": 6340,
    "\u2581Student": 6341,
    "\u2581Rev": 6342,
    "\u2581Fu": 6343,
    "\u2581intra": 6344,
    "\u2581proces": 6345,
    "\u2581margin": 6346,
    "lands": 6347,
    "04": 6348,
    "\u2581Steel": 6349,
    "\u2581besoin": 6350,
    "\u015fti": 6351,
    "\u258139": 6352,
    "\u2581outcomes": 6353,
    "wert": 6354,
    "3,": 6355,
    "\u2581hole": 6356,
    "\u2581Create": 6357,
    "\u2581hall": 6358,
    "nach": 6359,
    "\u2581indicate": 6360,
    "cum": 6361,
    "\u2581Mann": 6362,
    "\u2581reaction": 6363,
    "\u2581empty": 6364,
    "\u2581Sign": 6365,
    "\u2581pm": 6366,
    "erung": 6367,
    "\u2581w\u00fcrde": 6368,
    "\u2581declarat": 6369,
    "6%": 6370,
    "\u2581Client": 6371,
    "vil": 6372,
    "\u2581electricity": 6373,
    "\u258175": 6374,
    "\u2581buna": 6375,
    "e\u015fte": 6376,
    "\u2581prop": 6377,
    "\u2581journal": 6378,
    "\u2581meu": 6379,
    "\u2581chef": 6380,
    "\u2581Ever": 6381,
    "\u2581feelings": 6382,
    "PT": 6383,
    "\u2581proposal": 6384,
    "\u2581Its": 6385,
    "\u25812013.": 6386,
    "\u2581Bundes": 6387,
    "\u2581droit": 6388,
    "\u258110%": 6389,
    "gard": 6390,
    "information": 6391,
    "FE": 6392,
    "\u2581Dun": 6393,
    "\u2581Stock": 6394,
    "a\u021bie": 6395,
    "\u2581mag": 6396,
    "\u2581br": 6397,
    "\u2581sight": 6398,
    "phone": 6399,
    "\u2581Cy": 6400,
    "\u2581opposite": 6401,
    "ically": 6402,
    "gro\u00dfen": 6403,
    "\u2581Without": 6404,
    "espace": 6405,
    "\u2581chairs": 6406,
    "\u2581matches": 6407,
    "ateur": 6408,
    "\u2581Cost": 6409,
    "\u2581WordPress": 6410,
    "\u2581Opera": 6411,
    "walked": 6412,
    "\u2581transactions": 6413,
    "\u2581nuclear": 6414,
    "ways": 6415,
    "\u2581Oct": 6416,
    "\u2581bomb": 6417,
    "\u2581tracking": 6418,
    "\u2581photograph": 6419,
    "bio": 6420,
    "\u2581branch": 6421,
    "\u2581$5": 6422,
    "\u2581diagram": 6423,
    "\u2581Hard": 6424,
    "bach": 6425,
    "\u258142": 6426,
    "logy": 6427,
    "\u2581tile": 6428,
    "\u2581API": 6429,
    "seront": 6430,
    "ENT": 6431,
    "\u2581accommodation": 6432,
    "\u2581fiber": 6433,
    "\u2581Give": 6434,
    "\u2581Gas": 6435,
    "\u2581Spain": 6436,
    "\u2581listing": 6437,
    "\u2581blocks": 6438,
    "\u2581constitu": 6439,
    "\u2581convenience": 6440,
    "\u2581prize": 6441,
    "\u2581aircraft": 6442,
    "containing": 6443,
    "\u2581vice": 6444,
    "\u2581organisations": 6445,
    "\u2581complicated": 6446,
    "rons": 6447,
    "\u2581bars": 6448,
    "\u00e9tait": 6449,
    "\u2581checking": 6450,
    "vant": 6451,
    "\u2581couch": 6452,
    "\u2581brush": 6453,
    "\u2581printer": 6454,
    "\u2581Rat": 6455,
    "\u2581announce": 6456,
    "\u2581salari": 6457,
    "\u2581Sk": 6458,
    "pal": 6459,
    "\u2581yards": 6460,
    "\u2581flexibility": 6461,
    "\u2581jamais": 6462,
    "UC": 6463,
    "\u25814,": 6464,
    "\u2581Made": 6465,
    "\u2581solche": 6466,
    "\u2581tri": 6467,
    "\u2581outfit": 6468,
    "\u043c": 6469,
    "\u2581encouraged": 6470,
    "trac": 6471,
    "\u2581genetic": 6472,
    "\u2581beneficial": 6473,
    "m\u0103": 6474,
    "involving": 6475,
    "\u2581knee": 6476,
    "\u2581respective": 6477,
    "\u2581controlled": 6478,
    "\u2581R\u00fcck": 6479,
    "LC": 6480,
    "\u2581highlight": 6481,
    "chem": 6482,
    "\u2581Bis": 6483,
    "\u2581graphics": 6484,
    "\u2581posibil": 6485,
    "orul": 6486,
    "imagin": 6487,
    "\u2581draft": 6488,
    "shaped": 6489,
    "\u2581suggests": 6490,
    "uvre": 6491,
    "page": 6492,
    "\u2581sentiment": 6493,
    "\u2581loop": 6494,
    "\u2581Quality": 6495,
    "\u2581volunteers": 6496,
    "\u2581representation": 6497,
    "\u2581examination": 6498,
    "\u2581(2)": 6499,
    "assi": 6500,
    "\u2581till": 6501,
    "\u2581Catholic": 6502,
    "\u25812020": 6503,
    "\u2581random": 6504,
    "tage": 6505,
    "\u2581baking": 6506,
    "\u2581Musik": 6507,
    "\u2581SC": 6508,
    "\u2581m\u00f6chte": 6509,
    "\u2581gene": 6510,
    "\u2581kam": 6511,
    "\u2581inspire": 6512,
    "unk": 6513,
    "\u2581Final": 6514,
    "\u2581jeden": 6515,
    "\u2581LLC": 6516,
    "\u2581sistem": 6517,
    "\u2581stages": 6518,
    "\u2581texture": 6519,
    "rib": 6520,
    "lung": 6521,
    "\u2581breath": 6522,
    "\u2581hosted": 6523,
    "\u2581Kingdom": 6524,
    "\u2581politics": 6525,
    "\u2581mood": 6526,
    "cam": 6527,
    "\u2581liked": 6528,
    "\u2581Credit": 6529,
    "tisch": 6530,
    "\u2581everywhere": 6531,
    "\u2581poti": 6532,
    "\u2581fruits": 6533,
    "oire": 6534,
    "\u2581mesure": 6535,
    "\u2581Studies": 6536,
    "\u2581provision": 6537,
    "\u2581Maria": 6538,
    "\u2581necessarily": 6539,
    "\u2581Net": 6540,
    "\u2581scar": 6541,
    "\u2581tracks": 6542,
    "\u2581ads": 6543,
    "termin": 6544,
    "\u2581Yo": 6545,
    "atory": 6546,
    "itoare": 6547,
    "\u2581colours": 6548,
    "\u2581correctly": 6549,
    "\u2581Trade": 6550,
    "\u2581Week": 6551,
    "\u2581Premier": 6552,
    "\u2581designers": 6553,
    "\u2581BE": 6554,
    "\u2581desktop": 6555,
    "\u2581lifetime": 6556,
    "\u2581Kind": 6557,
    "\u2581divers": 6558,
    "rain": 6559,
    "\u2581Von": 6560,
    "\u2581bal": 6561,
    "\u2581shots": 6562,
    "\u2581accommodate": 6563,
    "\u2581Paper": 6564,
    "\u2581interaction": 6565,
    "\u2581acquisition": 6566,
    "\u2581neuro": 6567,
    "\u2581institution": 6568,
    "\u2581automatic": 6569,
    "\u2581assess": 6570,
    "\u2581manifest": 6571,
    "\u2581audit": 6572,
    "\u2581c\u00e2te": 6573,
    "\u2581insight": 6574,
    "\u2581lange": 6575,
    "\u2581retirement": 6576,
    "sons": 6577,
    "\u2581Asian": 6578,
    "\u2581rail": 6579,
    "\u2581Awards": 6580,
    "Avec": 6581,
    "SO": 6582,
    "para": 6583,
    "\u2581tant": 6584,
    "\u2581strike": 6585,
    "\u2581transformation": 6586,
    "\u2581leicht": 6587,
    "\u043b": 6588,
    "fat": 6589,
    "\u2581Qui": 6590,
    "\u2581chip": 6591,
    "titude": 6592,
    "\u2581Projekt": 6593,
    "\u2581statt": 6594,
    "\u2581findet": 6595,
    "\u2581telephone": 6596,
    "\u2581staying": 6597,
    "\u2581Mess": 6598,
    "\u2581patio": 6599,
    "\u2581afla": 6600,
    "\u2581administrative": 6601,
    "\u2581gemeinsam": 6602,
    "\u2581suppliers": 6603,
    "ark": 6604,
    "\u2581rice": 6605,
    "\u2581stretch": 6606,
    "\u2581compact": 6607,
    "fire": 6608,
    "\u0432": 6609,
    "vision": 6610,
    "\u2581Mag": 6611,
    "\u2581dreams": 6612,
    "\u2581funny": 6613,
    "\u2581l\u00e4sst": 6614,
    "cade": 6615,
    "\u2581drama": 6616,
    "\u2581schimb": 6617,
    "PO": 6618,
    "\u2581Sim": 6619,
    "\u2581motivation": 6620,
    "\u2581presents": 6621,
    "\u25811997": 6622,
    "agi": 6623,
    "\u2581optimal": 6624,
    "\u2581folder": 6625,
    "stro": 6626,
    "\u2581Han": 6627,
    "\u2581Ei": 6628,
    "\u2581pus": 6629,
    "\u2581Learning": 6630,
    "oop": 6631,
    "\u2581Type": 6632,
    "space": 6633,
    "\u2581define": 6634,
    "\u2581plug": 6635,
    "yard": 6636,
    "\u2581utility": 6637,
    "\u00fcber": 6638,
    "\u2581commun": 6639,
    "\u2581directed": 6640,
    "\u2581consent": 6641,
    "\u2581DNA": 6642,
    "\u2581statements": 6643,
    "real": 6644,
    "active": 6645,
    "school": 6646,
    "\u2581mic": 6647,
    "\u2581acestui": 6648,
    "scale": 6649,
    "\u2581Mid": 6650,
    "\u2581Chair": 6651,
    "\u043a": 6652,
    "\u2581Bas": 6653,
    "\u258138": 6654,
    "erin": 6655,
    "\u2581Everyone": 6656,
    "COM": 6657,
    "\u2581chronic": 6658,
    "\u2581doctors": 6659,
    "\u2581sh": 6660,
    "sport": 6661,
    "\u2581volunteer": 6662,
    "\u2581drinking": 6663,
    "\u2581Mas": 6664,
    "\u2581pursue": 6665,
    "\u2581exposed": 6666,
    "exe": 6667,
    "hung": 6668,
    "\u2581Tier": 6669,
    "\u2581plac": 6670,
    "\u2581proiect": 6671,
    "\u2581literally": 6672,
    "\u2581acolo": 6673,
    "\u2581User": 6674,
    "UT": 6675,
    "\u2581hyper": 6676,
    "\u2581seed": 6677,
    "\u2581literature": 6678,
    "\u2581Holy": 6679,
    "\u2581jeu": 6680,
    "\u2581licensed": 6681,
    "station": 6682,
    "\u2581criteria": 6683,
    "\u2581sufficient": 6684,
    "\u2581gestion": 6685,
    "\u2581pic": 6686,
    "\u258164": 6687,
    "\u2581facts": 6688,
    "\u2581Bild": 6689,
    "obi": 6690,
    "\u2581nie": 6691,
    "\u2581Jewish": 6692,
    "bor": 6693,
    "\u25811980": 6694,
    "\u2581Fach": 6695,
    "craft": 6696,
    "\u2581Pakistan": 6697,
    "\u2581Mos": 6698,
    "\u2581toilet": 6699,
    "partea": 6700,
    "case": 6701,
    "\u2581clock": 6702,
    "\u2581parc": 6703,
    "\u2581legislation": 6704,
    "\u2581icon": 6705,
    "etz": 6706,
    "ept": 6707,
    "\u2581Corporation": 6708,
    "\u2581requested": 6709,
    "\u2581column": 6710,
    "rier": 6711,
    "u\u00df": 6712,
    "\u2581wohl": 6713,
    "tell": 6714,
    "gno": 6715,
    "\u2581diseases": 6716,
    "Sch": 6717,
    "\u2581colon": 6718,
    "\u2581Based": 6719,
    "\u2581flu": 6720,
    "\u2581vocal": 6721,
    "\u2581virus": 6722,
    "\u2581traveling": 6723,
    "bul": 6724,
    "\u0442": 6725,
    "city": 6726,
    "AU": 6727,
    "wide": 6728,
    "\u2581solo": 6729,
    "\u2581functionality": 6730,
    "\u2581reveal": 6731,
    "sign": 6732,
    "\u2581closing": 6733,
    "\u2581peak": 6734,
    "\u2581practic": 6735,
    "than": 6736,
    "\u2581driven": 6737,
    "\u00eates": 6738,
    "high": 6739,
    "power": 6740,
    "\u2581Lin": 6741,
    "\u2581dose": 6742,
    "\u2581pocket": 6743,
    "\u2581Classic": 6744,
    "\u2581packaging": 6745,
    "\u2581distinct": 6746,
    "\u2581c\u00f4t\u00e9": 6747,
    "\u2581breast": 6748,
    "\u2581folosit": 6749,
    "\u2581drinks": 6750,
    "\u2581Dog": 6751,
    "ailleurs": 6752,
    "\u2581caz": 6753,
    "\u2581escape": 6754,
    "\u2581warranty": 6755,
    "\u2581pulled": 6756,
    "data": 6757,
    "\u2581facilitate": 6758,
    "\u00c9": 6759,
    "\u2581SP": 6760,
    "lant": 6761,
    "AD": 6762,
    "\u2581Print": 6763,
    "mond": 6764,
    "\u2581strange": 6765,
    "\u2581Hor": 6766,
    "\u2581Collection": 6767,
    "arm": 6768,
    "cas": 6769,
    "arrow": 6770,
    "\u2581carrying": 6771,
    "\u2581wave": 6772,
    "setzt": 6773,
    "\u2581construct": 6774,
    "\u2581acts": 6775,
    "\u2581Action": 6776,
    "\u2581Kim": 6777,
    "oxid": 6778,
    "fish": 6779,
    "\u2581damaged": 6780,
    "\u2581Greek": 6781,
    "\u2581belt": 6782,
    "\u2581Prior": 6783,
    "\u2581marks": 6784,
    "\u2581lumea": 6785,
    "\u2581twenty": 6786,
    "\u2581locul": 6787,
    "\u2581Army": 6788,
    "apt": 6789,
    "\u2581limits": 6790,
    "\u2581cruise": 6791,
    "\u2581List": 6792,
    "utilisation": 6793,
    "\u2581personality": 6794,
    "\u2581sections": 6795,
    "\u2581drawn": 6796,
    "\u2581mold": 6797,
    "\u2581Think": 6798,
    "\u2581holidays": 6799,
    "\u2581critic": 6800,
    "grade": 6801,
    "\u2581sick": 6802,
    "\u2581characteristics": 6803,
    "\u2581echipa": 6804,
    "\u2581Fast": 6805,
    "\u2581Br": 6806,
    "\u2581Reise": 6807,
    "teen": 6808,
    "uci": 6809,
    "!\u201d": 6810,
    "ppe": 6811,
    "\u2581talked": 6812,
    "\u2581gap": 6813,
    "homme": 6814,
    "\u2581interact": 6815,
    "\u2581dollar": 6816,
    "\u2581bone": 6817,
    "\u2581Einsatz": 6818,
    "\u2581sad": 6819,
    "any": 6820,
    "tation": 6821,
    "\u2581Haupt": 6822,
    "iva": 6823,
    "\u2581Schu": 6824,
    "\u2581evaluate": 6825,
    "\u2581variant": 6826,
    "\u2581IS": 6827,
    "\u2581PRO": 6828,
    "\u2581vine": 6829,
    "rut": 6830,
    "\u2581existence": 6831,
    "-7": 6832,
    "ancy": 6833,
    "\u2581Want": 6834,
    "alism": 6835,
    "ranging": 6836,
    "preis": 6837,
    "All": 6838,
    "\u2581reception": 6839,
    "mai": 6840,
    "\u2581lease": 6841,
    "\u2581finest": 6842,
    "\u2581evident": 6843,
    "\u2581Easy": 6844,
    "\u2581gilt": 6845,
    "\u2581trips": 6846,
    "\u2581skilled": 6847,
    "consists": 6848,
    "front": 6849,
    "rati": 6850,
    "\u2581Following": 6851,
    "\u2581Medicine": 6852,
    "\u2581pune": 6853,
    "\u2581errors": 6854,
    "arian": 6855,
    "lib": 6856,
    "SR": 6857,
    "ML": 6858,
    "\u2581Safety": 6859,
    "\u2581clar": 6860,
    "New": 6861,
    "\u258137": 6862,
    "\u2581Administration": 6863,
    "\u25812.0": 6864,
    "\u2581obviously": 6865,
    "\u2581Mitarbeiter": 6866,
    "\u2581improvements": 6867,
    "\u2581Cut": 6868,
    "\u2581Natural": 6869,
    "\u2581arrival": 6870,
    "\u2581pizza": 6871,
    "e\u015fti": 6872,
    "cept": 6873,
    "\u2581livre": 6874,
    "\u2581nombreux": 6875,
    "\u2581authentic": 6876,
    "\u2581gemacht": 6877,
    "\u2581broadcast": 6878,
    "\u2581stronger": 6879,
    "UP": 6880,
    "\u2581centers": 6881,
    "\u2581petite": 6882,
    "\u2581spots": 6883,
    "\u2581crystal": 6884,
    "\u2581salon": 6885,
    "\u2581gained": 6886,
    "\u2581Mus": 6887,
    "\u2581lens": 6888,
    "\u2581ihm": 6889,
    "minute": 6890,
    "\u2581greatly": 6891,
    "LP": 6892,
    "rait": 6893,
    "\u2581bid": 6894,
    "\u2581cit": 6895,
    "entreprise": 6896,
    "\u258155": 6897,
    "\u2581respectively": 6898,
    "\u2581lo": 6899,
    "\u2581cons": 6900,
    "\u2581Energie": 6901,
    "\u2581OK": 6902,
    "\u2581grill": 6903,
    "\u2581heading": 6904,
    "\u2581sollten": 6905,
    "\u2581Fragen": 6906,
    "\u2581Poli": 6907,
    "\u2581studying": 6908,
    "\u2581d\u00e9veloppement": 6909,
    "\u2581foam": 6910,
    "\u25811996": 6911,
    "\u2581disaster": 6912,
    "\u2581cafe": 6913,
    "\u2581moves": 6914,
    "focuses": 6915,
    "\u2581Avenue": 6916,
    "\u2581humans": 6917,
    "\u2581(3": 6918,
    "\u2581r\u00e9gion": 6919,
    "\u2581DJ": 6920,
    "shop": 6921,
    "\u2581acting": 6922,
    "\u2581Justice": 6923,
    "\u2581trouve": 6924,
    "\u2581Estate": 6925,
    "\u2581strict": 6926,
    "\u2581talks": 6927,
    "\u2581mat": 6928,
    "\u2581completion": 6929,
    "delivering": 6930,
    "CD": 6931,
    "0%": 6932,
    "\u2581creativity": 6933,
    "BR": 6934,
    "\u2581occurred": 6935,
    "Car": 6936,
    "\u2581rising": 6937,
    "gger": 6938,
    "\u2581Gene": 6939,
    "\u2581workplace": 6940,
    "phy": 6941,
    "\u2581Bla": 6942,
    "\u2581trailer": 6943,
    "\u2581Forest": 6944,
    "\u2581profession": 6945,
    "\u2581Father": 6946,
    "flu": 6947,
    "tone": 6948,
    "\u2581sexual": 6949,
    "\u2581Map": 6950,
    "OT": 6951,
    "\u2581Us": 6952,
    "t\u00f4t": 6953,
    "\u2581Wert": 6954,
    "preparing": 6955,
    "is\u00e9": 6956,
    "\u2581lake": 6957,
    "eed": 6958,
    "jun": 6959,
    "\u2581implemented": 6960,
    "vid": 6961,
    "igne": 6962,
    "\u2581follows": 6963,
    "\u2581Eric": 6964,
    "body": 6965,
    "\u2581contained": 6966,
    "\u2581massage": 6967,
    "AV": 6968,
    "\u2581insa": 6969,
    "\u2581observed": 6970,
    "\u2581marque": 6971,
    "lines": 6972,
    "\u2581Frage": 6973,
    "largely": 6974,
    "gegeben": 6975,
    "\u2581colleagues": 6976,
    "pha": 6977,
    "\u2581representative": 6978,
    "\u2581shut": 6979,
    "\u2581secondary": 6980,
    "\u2581exhibit": 6981,
    "1)": 6982,
    "mid": 6983,
    "\u2581Due": 6984,
    "\u2581initiatives": 6985,
    "\u2581occurs": 6986,
    "lent": 6987,
    "\u2581fa\u00e7on": 6988,
    "\u2581iOS": 6989,
    "\u2581exploring": 6990,
    "\u2581stations": 6991,
    "nton": 6992,
    "\u2581Country": 6993,
    "\u2581shouldn": 6994,
    "\u2581casual": 6995,
    "-18": 6996,
    "\u2581maintained": 6997,
    "\u2581cart": 6998,
    "\u2581propre": 6999,
    "\u2581asset": 7000,
    "firm": 7001,
    "gla": 7002,
    "viv": 7003,
    "\u2581scientists": 7004,
    "\u2581Nor": 7005,
    "ites": 7006,
    "\u2581engaging": 7007,
    "My": 7008,
    "\u2581workshops": 7009,
    "ffer": 7010,
    "activit\u00e9": 7011,
    "\u2581tension": 7012,
    "\u2581dual": 7013,
    "uer": 7014,
    "900": 7015,
    "SF": 7016,
    "\u2581kannst": 7017,
    "\u2581bur": 7018,
    "\u2581visitor": 7019,
    "\u2581granted": 7020,
    "\u2581union": 7021,
    "\u2581tablet": 7022,
    "\u2581Choose": 7023,
    "ibil": 7024,
    "\u2581settlement": 7025,
    "genommen": 7026,
    "\u2581marked": 7027,
    "\u2581diagnostic": 7028,
    "\u2581prayer": 7029,
    "\u2581Toronto": 7030,
    "trans": 7031,
    "\u2581respectiv": 7032,
    "\u25812012.": 7033,
    "icul": 7034,
    "\u2581satisfied": 7035,
    "\u2581Fla": 7036,
    "\u2581estimate": 7037,
    "\u2581Agency": 7038,
    "OD": 7039,
    "\u2581McC": 7040,
    "bert": 7041,
    "\u2581seal": 7042,
    "aine": 7043,
    "\u2581cauza": 7044,
    "\u2581wallpaper": 7045,
    "\u2581alb": 7046,
    "\u2581Sound": 7047,
    "worth": 7048,
    "chten": 7049,
    "programm": 7050,
    "\u2581pounds": 7051,
    "\u2581coaching": 7052,
    "\u2581Furthermore": 7053,
    "\u2581Korea": 7054,
    "\u2581flour": 7055,
    "\u2581sommes": 7056,
    "\u2581Repair": 7057,
    "\u201d)": 7058,
    "itch": 7059,
    "blu": 7060,
    "zar": 7061,
    "\u2581diferite": 7062,
    "\u2581Golf": 7063,
    "arch": 7064,
    "\u2581panels": 7065,
    "jan": 7066,
    "\u201c.": 7067,
    "izarea": 7068,
    "\u2581golden": 7069,
    "\u2581flying": 7070,
    "\u2581museum": 7071,
    "\u2581equivalent": 7072,
    "\u2581Lang": 7073,
    "schi": 7074,
    "MI": 7075,
    "\u2581faci": 7076,
    "\u2581Rahmen": 7077,
    "\u2581attending": 7078,
    "\u2032\u2032": 7079,
    "\u2581Tro": 7080,
    "\u2581gaming": 7081,
    "\u2581aujourd": 7082,
    "\u2581Wochen": 7083,
    "\u2581entering": 7084,
    "its": 7085,
    "\u2581Private": 7086,
    "\u2581Ocean": 7087,
    "\u258101": 7088,
    "\u2581coloring": 7089,
    "\u0103tor": 7090,
    "\u2581flooring": 7091,
    "\u2581downtown": 7092,
    "rab": 7093,
    "HI": 7094,
    "\u2581illness": 7095,
    "\u2581whil": 7096,
    "\u2581diamond": 7097,
    "Mail": 7098,
    "\u2581Dream": 7099,
    "\u2581Golden": 7100,
    "\u2581rein": 7101,
    "\u2581hi": 7102,
    "\u2581expressed": 7103,
    "\u2581luat": 7104,
    "\u2581Share": 7105,
    "\u2581Programm": 7106,
    "\u2581Sales": 7107,
    "\u2581prof": 7108,
    "\u2581MO": 7109,
    "\u2581Short": 7110,
    "\u2581charm": 7111,
    "\u2581Cer": 7112,
    "\u2581Run": 7113,
    "\u2581tutorial": 7114,
    "oul": 7115,
    "\u2581Fest": 7116,
    "\u2581uniform": 7117,
    "a\u00df": 7118,
    "\u2581pipe": 7119,
    "\u2581Square": 7120,
    "\u2581Kosten": 7121,
    "\u2581checked": 7122,
    "\u258165": 7123,
    "\u2581Adam": 7124,
    "cel": 7125,
    "ello": 7126,
    "\u2581Res": 7127,
    "\u2581drain": 7128,
    "z\u0103": 7129,
    "\u2581Tech": 7130,
    "\u2581strive": 7131,
    "cycl": 7132,
    "\u2581stark": 7133,
    "load": 7134,
    "\u2581Stat": 7135,
    "\u2581Rec": 7136,
    "ians": 7137,
    "\u2581Tin": 7138,
    "\u2581Agreement": 7139,
    "\u2581pret": 7140,
    "-9": 7141,
    "\u2581sentence": 7142,
    "\u2581Direct": 7143,
    "\u2581Rep": 7144,
    "\u2581Prozent": 7145,
    "\u2581invitation": 7146,
    "\u2581refund": 7147,
    "\u2581Kids": 7148,
    "stock": 7149,
    "TP": 7150,
    "\u2581tau": 7151,
    "from": 7152,
    "\u2581Ash": 7153,
    "store": 7154,
    "\u2581Common": 7155,
    "\u2581Qualit\u00e4t": 7156,
    "\u2581strongly": 7157,
    "\u2581importante": 7158,
    "ome": 7159,
    "\u2581surtout": 7160,
    "enables": 7161,
    "\u2581decent": 7162,
    "\u2581neutral": 7163,
    "\u2581produs": 7164,
    "bury": 7165,
    "\u2581Level": 7166,
    "\u2581interes": 7167,
    "mov": 7168,
    "\u2581backup": 7169,
    "m\u00eame": 7170,
    "doc": 7171,
    "\u2581#1": 7172,
    "\u2581specified": 7173,
    "\u2581founder": 7174,
    "And": 7175,
    "isten": 7176,
    "\u2581lecture": 7177,
    "\u2581wake": 7178,
    "\u2581vraiment": 7179,
    "\u2581swing": 7180,
    "\u2581addresses": 7181,
    "\u2581Verf\u00fcgung": 7182,
    "\u2581deadline": 7183,
    "\u043d": 7184,
    "\u2581Content": 7185,
    "\u2581Gre": 7186,
    "\u2581Experience": 7187,
    "tura": 7188,
    "\u2581exit": 7189,
    "\u2581Britain": 7190,
    "\u2581Sunt": 7191,
    "\u2581documentation": 7192,
    "\u2581showcase": 7193,
    "\u2581photographs": 7194,
    "qu\u00e9": 7195,
    "zin": 7196,
    "pres": 7197,
    "\u2581decline": 7198,
    "\u2581Large": 7199,
    "\u2581bills": 7200,
    "\u2581entitled": 7201,
    "\u2581passionate": 7202,
    "\u2581workout": 7203,
    "\u2581Again": 7204,
    "\u2581Haut": 7205,
    "\u2581guaranteed": 7206,
    "\u2581vue": 7207,
    "\u2581farmers": 7208,
    "\u2581admission": 7209,
    "\u2581mani\u00e8re": 7210,
    "\u2581reverse": 7211,
    "\u2581FL": 7212,
    "\u2581terminal": 7213,
    "GI": 7214,
    "\u2581speakers": 7215,
    "\u2581responses": 7216,
    "\u2581Doch": 7217,
    "\u25812013,": 7218,
    "\u2581phones": 7219,
    "ential": 7220,
    "\u2581operator": 7221,
    "\u2581steam": 7222,
    "burn": 7223,
    "\u2581seul": 7224,
    "\u2581unusual": 7225,
    "\u2581educate": 7226,
    "\u2581Que": 7227,
    "\u2581believes": 7228,
    "\u2581succeed": 7229,
    "\u2581delay": 7230,
    "\u2581deeper": 7231,
    "\u2581reaching": 7232,
    "\u2581objectives": 7233,
    "\u2581temporary": 7234,
    "\u2581artistic": 7235,
    "\u2581sou": 7236,
    "\u2581transparent": 7237,
    "There": 7238,
    "ception": 7239,
    "\u2581excess": 7240,
    "\u2581gathering": 7241,
    "\u2581Save": 7242,
    "az\u0103": 7243,
    "\u2581fran\u00e7ais": 7244,
    "\u2581laid": 7245,
    "\u2581modul": 7246,
    "avoir": 7247,
    "under": 7248,
    "dding": 7249,
    "\u2581falls": 7250,
    "\u2581M\u00f6glichkeit": 7251,
    "\u2581ceremony": 7252,
    "rai": 7253,
    "\u2581Bor": 7254,
    "\u2581Below": 7255,
    "4)": 7256,
    "\u2581Field": 7257,
    "wear": 7258,
    "motion": 7259,
    "print": 7260,
    "game": 7261,
    "\u2581Irish": 7262,
    "\u2581Las": 7263,
    "Among": 7264,
    "atori": 7265,
    "\u2581ajuns": 7266,
    "\u2581alive": 7267,
    "\u2581retour": 7268,
    "\u2581smoke": 7269,
    "\u2581math": 7270,
    "\u2581Ye": 7271,
    "\u2581Denn": 7272,
    "\u25811995": 7273,
    "\u2581bani": 7274,
    "raz": 7275,
    "world": 7276,
    "\u2581engines": 7277,
    "nehmen": 7278,
    "stor": 7279,
    "\u2581interpret": 7280,
    "\u2581Ven": 7281,
    "\u2581cotton": 7282,
    "\u2581represented": 7283,
    "\u2581fabulous": 7284,
    "\u2581gender": 7285,
    "Mar": 7286,
    "vic": 7287,
    "\u2581newsletter": 7288,
    "sburg": 7289,
    "pond": 7290,
    "\u2581Carl": 7291,
    "\u2581bunch": 7292,
    "\u2581tower": 7293,
    "\u2581trigger": 7294,
    "\u2581explanation": 7295,
    "Man": 7296,
    "iunea": 7297,
    "\u2581announcement": 7298,
    "\u2581seeds": 7299,
    "\u2581shell": 7300,
    "\u2581Working": 7301,
    "viz": 7302,
    "\u2581Simply": 7303,
    "sub": 7304,
    "\u2581Village": 7305,
    "\u2581falling": 7306,
    "\u2581fits": 7307,
    "\u2581wichtig": 7308,
    "\u2581Down": 7309,
    "bble": 7310,
    "\u2581Orange": 7311,
    "promoting": 7312,
    "\u2581rapidly": 7313,
    "\u2581translation": 7314,
    "nig": 7315,
    "fusion": 7316,
    "kosten": 7317,
    "2)": 7318,
    "\u2581Express": 7319,
    "\u2581Sw": 7320,
    "\u2581frequency": 7321,
    "\u2581diversity": 7322,
    "MT": 7323,
    "\u2581bekannt": 7324,
    "lion": 7325,
    "\u2581cop": 7326,
    "\u2581Customer": 7327,
    "\u2581demands": 7328,
    "\u2581corn": 7329,
    "\u2581Hamburg": 7330,
    "SD": 7331,
    "\u2581Rome": 7332,
    "\u2581Pur": 7333,
    "\u2581stamp": 7334,
    "\u2581grateful": 7335,
    "RM": 7336,
    "\u2581Pl": 7337,
    "\u2581Tele": 7338,
    "\u2581plugin": 7339,
    "\u2581maxim": 7340,
    "\u2581Hoch": 7341,
    "igung": 7342,
    "\u2581Entwicklung": 7343,
    "\u2581File": 7344,
    "\u2581Eastern": 7345,
    "\u2581scrap": 7346,
    "\u2581acquired": 7347,
    "sau": 7348,
    "\u2581Klein": 7349,
    "\u2581milioane": 7350,
    "\u2581Stand": 7351,
    "\u2581childhood": 7352,
    "\u2581artificial": 7353,
    "\u2581substantial": 7354,
    "druck": 7355,
    "\u2581Kra": 7356,
    "\u2581performances": 7357,
    "\u2581row": 7358,
    "NT": 7359,
    "mod": 7360,
    "remained": 7361,
    "\u2581nimic": 7362,
    "\u2581Limited": 7363,
    "\u2581cookie": 7364,
    "\u2581retain": 7365,
    "\u2581600": 7366,
    "\u2581eigene": 7367,
    "\u2581tune": 7368,
    "NS": 7369,
    "\u2581dad": 7370,
    "Moreover": 7371,
    "\u00e8s": 7372,
    "\u2581worship": 7373,
    "\u2581Material": 7374,
    "\u2581verb": 7375,
    "ziehen": 7376,
    "lton": 7377,
    "\u2581boot": 7378,
    "plo": 7379,
    "CF": 7380,
    "GM": 7381,
    "\u2581Mix": 7382,
    "\u2581Front": 7383,
    "\u2581repairs": 7384,
    "\u2581proportion": 7385,
    "\u2581habit": 7386,
    "\u2581hide": 7387,
    "focusing": 7388,
    "\u2581Annual": 7389,
    "\u2581twin": 7390,
    "\u2581acord": 7391,
    "ehr": 7392,
    "month": 7393,
    "venir": 7394,
    "Or": 7395,
    "awa": 7396,
    "lass": 7397,
    "ffe": 7398,
    "i\u021bi": 7399,
    "NO": 7400,
    "\u2581scope": 7401,
    "\u2581lowest": 7402,
    "\u2581afraid": 7403,
    "\u2581subjects": 7404,
    "\u2581templates": 7405,
    "\u2581jos": 7406,
    "DM": 7407,
    "ensemble": 7408,
    "\u2581Ski": 7409,
    "DP": 7410,
    "\u2581grip": 7411,
    "2-": 7412,
    "\u2581s\u00e9curit\u00e9": 7413,
    "\u2581mono": 7414,
    "\u2581controls": 7415,
    "SV": 7416,
    "install": 7417,
    "berry": 7418,
    "nial": 7419,
    "shed": 7420,
    "\u2581celle": 7421,
    "FR": 7422,
    "\u00e4ng": 7423,
    "\u2581gaz": 7424,
    "\u00eat": 7425,
    "\u2581viewing": 7426,
    "\u2581asigura": 7427,
    "bling": 7428,
    "master": 7429,
    "\u2581Fin": 7430,
    "VC": 7431,
    "\u2581patent": 7432,
    "\u2581Clean": 7433,
    "\u25811970": 7434,
    "\u2581Char": 7435,
    "thi": 7436,
    "bli": 7437,
    "\u2581haut": 7438,
    "tica": 7439,
    "\u2581venit": 7440,
    "\u2581compatible": 7441,
    "\u2581hanging": 7442,
    "UN": 7443,
    "\u2581forth": 7444,
    "\u2581painted": 7445,
    "lip": 7446,
    "\u2581deeply": 7447,
    "\u2581participating": 7448,
    "\u2581Iran": 7449,
    "\u2581conventional": 7450,
    "ARE": 7451,
    "\u2581accuracy": 7452,
    "\u2581Familie": 7453,
    "\u2581Dir": 7454,
    "\u2581gehen": 7455,
    "\u2581moderne": 7456,
    "\u2581Iraq": 7457,
    "\u2581vente": 7458,
    "\u2581Donald": 7459,
    "\u2581passer": 7460,
    "\u2581mehrere": 7461,
    "\u2581Everything": 7462,
    "\u2581studied": 7463,
    "\u2581acquire": 7464,
    "f\u00fcr": 7465,
    "\u2581gal": 7466,
    "\u2581headed": 7467,
    "\u2581screening": 7468,
    "\u2581findings": 7469,
    "\u2581nutrition": 7470,
    "\u2581Secretary": 7471,
    "duct": 7472,
    "born": 7473,
    "\u00ab": 7474,
    "\u2581statistics": 7475,
    "\u2581Sydney": 7476,
    "\u2581Prof": 7477,
    "\u2581dialogue": 7478,
    "\u2581gather": 7479,
    "valu": 7480,
    "\u2581currency": 7481,
    "\u2581Kat": 7482,
    "gotten": 7483,
    "main": 7484,
    "\u2581coin": 7485,
    "\u2581Nick": 7486,
    "v\u0103": 7487,
    "\u2581Victoria": 7488,
    "\u2581conclusion": 7489,
    "\u2581lemon": 7490,
    "\u2581Article": 7491,
    "\u2581necesar": 7492,
    "mag": 7493,
    "\u2581riding": 7494,
    "\u2581Eli": 7495,
    "\u2581cord": 7496,
    "w\u00e4": 7497,
    "u\u00dferdem": 7498,
    "\u2581Bed": 7499,
    "\u2581layers": 7500,
    "\u2581harder": 7501,
    "\u2581processor": 7502,
    "\u2581Ils": 7503,
    "\u2581Edition": 7504,
    "\u2581Link": 7505,
    "\u00e9r\u00e9": 7506,
    "\u2581nume": 7507,
    "\u2581Boy": 7508,
    "\u2581equally": 7509,
    "\u2581Regel": 7510,
    "\u2581hopes": 7511,
    "odor": 7512,
    "\u2581initially": 7513,
    "\u2581$4": 7514,
    "\u2581exemplu": 7515,
    "\u2581vari": 7516,
    "schl": 7517,
    "\u2581southern": 7518,
    "\u2581mein": 7519,
    "\u25811994": 7520,
    "\u2581importantly": 7521,
    "\u2581succes": 7522,
    "\u2581developer": 7523,
    "\u2581lips": 7524,
    "\u2581attitude": 7525,
    "\u2581Age": 7526,
    "\u2581corps": 7527,
    "\u2581clicking": 7528,
    "\u2581putem": 7529,
    "\u2581journ\u00e9e": 7530,
    "boy": 7531,
    "\u2581injured": 7532,
    "\u2581watched": 7533,
    "\u2581flights": 7534,
    "turn": 7535,
    "\u2581stainless": 7536,
    "\u2581besondere": 7537,
    "\u2581Tur": 7538,
    "\u2581hiring": 7539,
    "\u2581roads": 7540,
    "ificat": 7541,
    "\u2581Flor": 7542,
    "\u2581puternic": 7543,
    "\u2581unexpected": 7544,
    "\u2581Est": 7545,
    "\u2581adopted": 7546,
    "\u2581Fox": 7547,
    "\u2581contributions": 7548,
    "sec": 7549,
    "IO": 7550,
    "\u2581sant\u00e9": 7551,
    "\u2581Tree": 7552,
    "\u2581scurt": 7553,
    "\u2581Products": 7554,
    "\u2581forecast": 7555,
    "\u2581actor": 7556,
    "\u2581Gallery": 7557,
    "\u2581continuous": 7558,
    "\u2581Hat": 7559,
    "\u2581slip": 7560,
    "9%": 7561,
    "\u2581depression": 7562,
    "UI": 7563,
    "abile": 7564,
    "\u2581merit": 7565,
    "\u2581Fer": 7566,
    "\u2581robot": 7567,
    "\u2581gel": 7568,
    "\u2581gentle": 7569,
    "\u2581wanting": 7570,
    "\u2581understood": 7571,
    "\u2581terrain": 7572,
    "\u2581associate": 7573,
    "\u2581discussions": 7574,
    "\u2581Job": 7575,
    "spec": 7576,
    "Dabei": 7577,
    "etic": 7578,
    "gol": 7579,
    "\u258120%": 7580,
    "\u2581grup": 7581,
    "\u2581Doctor": 7582,
    "verse": 7583,
    "\u2581victim": 7584,
    "\u021b\u0103": 7585,
    "\u2581scores": 7586,
    "\u2581Policy": 7587,
    "\u2581Anna": 7588,
    "IV": 7589,
    "\u2581mineral": 7590,
    "live": 7591,
    "\u2581grey": 7592,
    "struct": 7593,
    "\u2581emails": 7594,
    "\u2581anymore": 7595,
    "\u2581productivity": 7596,
    "\u2581Dark": 7597,
    "\u2581neither": 7598,
    "\u2581quotes": 7599,
    "LS": 7600,
    "\u2581Arizona": 7601,
    "night": 7602,
    "\u00e9l\u00e9": 7603,
    "\u2581assigned": 7604,
    "\u2581satellite": 7605,
    "\u2581stability": 7606,
    "\u2581networking": 7607,
    "\u2581Transport": 7608,
    "\u2581persons": 7609,
    "fund": 7610,
    "\u2581pratique": 7611,
    "\u2581inca": 7612,
    "iller": 7613,
    "\u2581packed": 7614,
    "\u2581Vegas": 7615,
    "\u2581offre": 7616,
    "\u2581Bin": 7617,
    "stop": 7618,
    "mini": 7619,
    "\u2581jam": 7620,
    "cord": 7621,
    "\u2581Beautiful": 7622,
    "\u2581trash": 7623,
    "\u2581wise": 7624,
    "\u2581accounting": 7625,
    "\u2581diff\u00e9rents": 7626,
    "\u2581stil": 7627,
    "suit": 7628,
    "\u2581vier": 7629,
    "\u2581permis": 7630,
    "flow": 7631,
    "\u2581col": 7632,
    "ected": 7633,
    "\u2581singer": 7634,
    "\u2581GmbH": 7635,
    "tics": 7636,
    "\u2581ser": 7637,
    "On": 7638,
    "\u2581insights": 7639,
    "BB": 7640,
    "\u2581differ": 7641,
    "\u2581Glass": 7642,
    "\u2581Six": 7643,
    "\u2581subscription": 7644,
    "BC": 7645,
    "\u2581returning": 7646,
    "kleinen": 7647,
    "\u2581advantages": 7648,
    "omme": 7649,
    "lus": 7650,
    "now": 7651,
    "\u2581Pack": 7652,
    "\u2581leak": 7653,
    "\u2581muscles": 7654,
    "\u2581davon": 7655,
    "mph": 7656,
    "\u2581temple": 7657,
    "\u2581Apr\u00e8s": 7658,
    "\u2581Illinois": 7659,
    "\u2581variable": 7660,
    "\u2581judgment": 7661,
    "gran": 7662,
    "\u2581pose": 7663,
    "das": 7664,
    "ures": 7665,
    "\u2581Championship": 7666,
    "ebenfalls": 7667,
    "\u2581hydro": 7668,
    "\u2581angle": 7669,
    "\u25815-": 7670,
    "\u2581gest": 7671,
    "\u2581Frau": 7672,
    "\u2581knock": 7673,
    "FS": 7674,
    "spi": 7675,
    "\u2581Regional": 7676,
    "lets": 7677,
    "\u2581Date": 7678,
    "\u2581Finance": 7679,
    "\u2581Dann": 7680,
    "Star": 7681,
    "\u2581Creek": 7682,
    "\u2581fu": 7683,
    "wohn": 7684,
    "\u2581anniversary": 7685,
    "\u2581investments": 7686,
    "\u2581universal": 7687,
    "\u2581pit": 7688,
    "\u0219te": 7689,
    "\u2581lab": 7690,
    "dienst": 7691,
    "\u2581pal": 7692,
    "\u2581graphic": 7693,
    "\u2581bearing": 7694,
    "\u2581stylish": 7695,
    "\u2581m\u00e9": 7696,
    "\u2581exist\u0103": 7697,
    "\u2581d\u00e9couvrir": 7698,
    "comp": 7699,
    "ridge": 7700,
    "\u2581heads": 7701,
    "\u2581consequences": 7702,
    "self": 7703,
    "fried": 7704,
    "\u2581inventory": 7705,
    "\u2581strip": 7706,
    "\u2581Civil": 7707,
    "bell": 7708,
    "\u2581neben": 7709,
    "\u2581Perfect": 7710,
    "\u2581Notre": 7711,
    "\u2581fraud": 7712,
    "\u2581employers": 7713,
    "\u2581Jackson": 7714,
    "\u2581probleme": 7715,
    "\u2581richtig": 7716,
    "\u2581Method": 7717,
    "\u2581tired": 7718,
    "dies": 7719,
    "\u2581Number": 7720,
    "rland": 7721,
    "\u2581latter": 7722,
    "rendre": 7723,
    "\u2581cameras": 7724,
    "\u2581euch": 7725,
    "\u2581Description": 7726,
    "Spec": 7727,
    "\u2581mile": 7728,
    "\u2581Challenge": 7729,
    "\u2581Solutions": 7730,
    "\u2581trusted": 7731,
    "\u2581einge": 7732,
    "r\u00fcck": 7733,
    "\u2581Ober": 7734,
    "kes": 7735,
    "\u2581Log": 7736,
    "\u2581dessert": 7737,
    "\u2581murder": 7738,
    "\u25811/2": 7739,
    "\u2581Provide": 7740,
    "nivelul": 7741,
    "nici": 7742,
    "\u2581observe": 7743,
    "\u2581prescription": 7744,
    "\u2581Sau": 7745,
    "\u2581genuine": 7746,
    "\u2581operated": 7747,
    "\u2581generous": 7748,
    "\u2581weapons": 7749,
    "\u2581belief": 7750,
    "\u2581consum": 7751,
    "\u2581unknown": 7752,
    "deoarece": 7753,
    "Art": 7754,
    "\u2581kurz": 7755,
    "\u2581Gut": 7756,
    "\u2581medication": 7757,
    "\u2581Mau": 7758,
    "\u2581divorce": 7759,
    "\u2581claimed": 7760,
    "halten": 7761,
    "\u2581Cons": 7762,
    "\u2581operational": 7763,
    "\u2581Hong": 7764,
    "VI": 7765,
    "\u2581Blick": 7766,
    "\u2581lamp": 7767,
    "pati": 7768,
    "\u25814-": 7769,
    "\u2581interven": 7770,
    "ques": 7771,
    "\u2581Talk": 7772,
    "\u2581zeigt": 7773,
    "\u2581targeted": 7774,
    "round": 7775,
    "enfant": 7776,
    "\u2581Reg": 7777,
    "\u2581instruments": 7778,
    "\u2581calcul": 7779,
    "\u2581Henry": 7780,
    "\u2581Cla": 7781,
    "\u2581rack": 7782,
    "sehen": 7783,
    "\u2581ending": 7784,
    "\u2581resolve": 7785,
    "\u2581advise": 7786,
    "\u2581sociale": 7787,
    "\u2581cabin": 7788,
    "\u2581involve": 7789,
    "g\u0103": 7790,
    "\u2581automat": 7791,
    "\u2581consultant": 7792,
    "Bu": 7793,
    "\u2581safely": 7794,
    "\u00e9tat": 7795,
    "\u2581pros": 7796,
    "\u2581lies": 7797,
    "\u2581Brian": 7798,
    "\u2581talented": 7799,
    "pus": 7800,
    "\u2581hub": 7801,
    "\u2581Ji": 7802,
    "\u2581sought": 7803,
    "\u2581energie": 7804,
    "\u2581m\u00f6chten": 7805,
    "\u258111.": 7806,
    "\u2581Kong": 7807,
    "\u2581grave": 7808,
    "\u2581lists": 7809,
    "tati": 7810,
    "verschiedenen": 7811,
    "dam": 7812,
    "\u2581charity": 7813,
    "\u2581breaking": 7814,
    "kins": 7815,
    "\u2581k\u00f6nnte": 7816,
    "\u2581appointed": 7817,
    "roc": 7818,
    "\u2581Senate": 7819,
    "wit": 7820,
    "\u2581emerging": 7821,
    "\u2581ann\u00e9e": 7822,
    "\u2581Cool": 7823,
    "\u2581sensor": 7824,
    "How": 7825,
    "\u2581Ryan": 7826,
    "\u2581computers": 7827,
    "\u2581fault": 7828,
    "\u2581pr\u00e9sent": 7829,
    "ulation": 7830,
    "\u2581stir": 7831,
    "lauf": 7832,
    "\u2581AI": 7833,
    "\u2581Bri": 7834,
    "\u2581bain": 7835,
    "\u25815,": 7836,
    "schein": 7837,
    "\u2581wei\u00df": 7838,
    "\u2581possibilities": 7839,
    "gur": 7840,
    "\u2581hinter": 7841,
    "Innen": 7842,
    "\u2581vorba": 7843,
    "fahren": 7844,
    "\u2581Cell": 7845,
    "univers": 7846,
    "\u2581Follow": 7847,
    "\u2581emotions": 7848,
    "\u2581Ministry": 7849,
    "\u2581curriculum": 7850,
    "Je": 7851,
    "\u2581gab": 7852,
    "\u2581sigur": 7853,
    "rise": 7854,
    "Pri": 7855,
    "\u2581stabil": 7856,
    "\u2581superb": 7857,
    "\u2581Oak": 7858,
    "\u2581rubber": 7859,
    "\u2581tag": 7860,
    "PG": 7861,
    "\u2581Heat": 7862,
    "\u2581thousand": 7863,
    "\u2581meets": 7864,
    "\u2581faced": 7865,
    "\u2581reserve": 7866,
    "cateva": 7867,
    "\u2581gym": 7868,
    "\u2581vitamin": 7869,
    "\u2581Rest": 7870,
    "\u2581Single": 7871,
    "\u2581Stephen": 7872,
    "\u2581trick": 7873,
    "DU": 7874,
    "\u2581telefon": 7875,
    "\u2581g\u00e2nd": 7876,
    "\u2581primit": 7877,
    "\u2581Connect": 7878,
    "\u2581f\u00fchrt": 7879,
    "\u2581Info": 7880,
    "\u2581recall": 7881,
    "\u2581restore": 7882,
    "lege": 7883,
    "\u2581franchise": 7884,
    "\u2581seulement": 7885,
    "reci": 7886,
    "\u25812019,": 7887,
    "\u2581Ring": 7888,
    "\u2581assembly": 7889,
    "int\u00e9rieur": 7890,
    "\u2581shade": 7891,
    "\u2581meaningful": 7892,
    "bag": 7893,
    "ONE": 7894,
    "\u2581globe": 7895,
    "\u2581WA": 7896,
    "\u2581intervention": 7897,
    "\u00f6l": 7898,
    "\u2581Marine": 7899,
    "\u2581Angebot": 7900,
    "\u2581align": 7901,
    "\u2581temperatures": 7902,
    "ifier": 7903,
    "\u2581Nigeria": 7904,
    "\u2581survive": 7905,
    "ounce": 7906,
    "\u2581placement": 7907,
    "\u2581deci": 7908,
    "\u2581Taylor": 7909,
    "step": 7910,
    "\u2581Geschichte": 7911,
    "\u2581Bet": 7912,
    "\u2581Nature": 7913,
    "\u2581FC": 7914,
    "\u2581ownership": 7915,
    "\u2581behaviour": 7916,
    "\u2581deutlich": 7917,
    "\u2581wondering": 7918,
    "\u2581cleaner": 7919,
    "uring": 7920,
    "r\u00e4": 7921,
    "\u2581ga": 7922,
    "ador": 7923,
    "\u2581artwork": 7924,
    "ologic": 7925,
    "\u2581eigentlich": 7926,
    "\u2581hell": 7927,
    "source": 7928,
    "\u2581gem": 7929,
    "\u2581boss": 7930,
    "\u2581arise": 7931,
    "about": 7932,
    "\u2581SI": 7933,
    "\u2581ME": 7934,
    "akt": 7935,
    "\u2581Style": 7936,
    "\u2581K\u00f6rper": 7937,
    "gui": 7938,
    "\u2581navigate": 7939,
    "\u2581Meanwhile": 7940,
    "\u2581a\u0219a": 7941,
    "\u2581bulk": 7942,
    "\u2581directions": 7943,
    "\u2581brick": 7944,
    "\u2581Poly": 7945,
    "\u2581politique": 7946,
    "\u2581patch": 7947,
    "\u0440\u0430": 7948,
    "commerce": 7949,
    "\u2581\u00eenainte": 7950,
    "\u2581intelligent": 7951,
    "\u2581infection": 7952,
    "\u2581Tru": 7953,
    "\u2581raising": 7954,
    "tragen": 7955,
    "\u2581portrait": 7956,
    "\u2581meisten": 7957,
    "\u2581organize": 7958,
    "metric": 7959,
    "\u2581Season": 7960,
    "\u2581enforcement": 7961,
    "origine": 7962,
    "\u2581Ros": 7963,
    "\u2581Mount": 7964,
    "have": 7965,
    "\u2581romantic": 7966,
    "\u2581comic": 7967,
    "\u2581greu": 7968,
    "ET": 7969,
    "\u2581hook": 7970,
    "\u2581mort": 7971,
    "\u2581indicated": 7972,
    "\u25817,": 7973,
    "\u2581Neben": 7974,
    "yer": 7975,
    "\u2581momentul": 7976,
    "note": 7977,
    "\u2581baz": 7978,
    "\u2581abroad": 7979,
    "nite": 7980,
    "\u2581bass": 7981,
    "\u2581norm": 7982,
    "\u2581\u00c9": 7983,
    "4.": 7984,
    "\u2581province": 7985,
    "\u2581merge": 7986,
    "arbeiten": 7987,
    "-20": 7988,
    "\u2581Nicht": 7989,
    "spo": 7990,
    "size": 7991,
    "\u2581assure": 7992,
    "charge": 7993,
    "\u2581olive": 7994,
    "\u2581Pot": 7995,
    "\u2581Figure": 7996,
    "clair": 7997,
    "\u2581discipline": 7998,
    "elli": 7999,
    "\u2581tackle": 8000,
    "\u2581buyer": 8001,
    "\u2581loud": 8002,
    "\u2581180": 8003,
    "\u2581c\u0103t": 8004,
    "\u2581Palm": 8005,
    "away": 8006,
    "\u2581Mother": 8007,
    "onia": 8008,
    "\u2581Protection": 8009,
    "auto": 8010,
    "\u2581Version": 8011,
    "\u2581Nice": 8012,
    "\u258112.": 8013,
    "\u25810,": 8014,
    "ATION": 8015,
    "\u2581Produkte": 8016,
    "\u2581tube": 8017,
    "\u2581Houston": 8018,
    "chu": 8019,
    "pas": 8020,
    "\u2581Ele": 8021,
    "\u2581mountains": 8022,
    "PH": 8023,
    "\u2581languages": 8024,
    "\u2581servicii": 8025,
    "\u2581Stay": 8026,
    "fil": 8027,
    "\u2581propos": 8028,
    "\u2581coll": 8029,
    "\u2581mor": 8030,
    "\u2581arrange": 8031,
    "\u2581sorry": 8032,
    "\u2581instruction": 8033,
    "\u2581holes": 8034,
    "letting": 8035,
    "\u2581wa": 8036,
    "\u2581Feb": 8037,
    "omb": 8038,
    "\u2581prise": 8039,
    "VO": 8040,
    "week": 8041,
    "\u2581Event": 8042,
    "\u2581AT": 8043,
    "ket": 8044,
    "haft": 8045,
    "\u2581hits": 8046,
    "foli": 8047,
    "this": 8048,
    "GP": 8049,
    "\u2581Pin": 8050,
    "\u2581Stein": 8051,
    "thing": 8052,
    "\u2581emphasis": 8053,
    "\u2581Mur": 8054,
    "\u2581Bag": 8055,
    "cons": 8056,
    "tons": 8057,
    "lash": 8058,
    "\u2581Grant": 8059,
    "\u2581pris": 8060,
    "\u2581bun\u0103": 8061,
    "\u2581buc": 8062,
    "\u2581passe": 8063,
    "\u2581jewelry": 8064,
    "iens": 8065,
    "\u2581forma": 8066,
    "\u2581Med": 8067,
    "laufen": 8068,
    "\u2581hunt": 8069,
    "stayed": 8070,
    "party": 8071,
    "\u2581fra": 8072,
    "\u2581scenes": 8073,
    "\u2581absorb": 8074,
    "\u2581abilities": 8075,
    "lug": 8076,
    "\u2581Sarah": 8077,
    "mpf": 8078,
    "\u2581fle": 8079,
    "acc\u00e8s": 8080,
    "\u2581solicit": 8081,
    "pie": 8082,
    "\u2581Zum": 8083,
    "\u2581universe": 8084,
    "\u2581exists": 8085,
    "oane": 8086,
    "IVE": 8087,
    "\u25812011.": 8088,
    "\u2581specialists": 8089,
    "\u2581mess": 8090,
    "fach": 8091,
    "\u2581Recht": 8092,
    "\u2581hack": 8093,
    "\u2581jacket": 8094,
    "HC": 8095,
    "\u2581substance": 8096,
    "\u2581signing": 8097,
    "\u2581allerdings": 8098,
    "\u2581publish": 8099,
    "\u2581Lab": 8100,
    "\u2581agenda": 8101,
    "lane": 8102,
    "stream": 8103,
    "schau": 8104,
    "\u2581realizat": 8105,
    "\u2581supplier": 8106,
    "\u2581moderate": 8107,
    "\u2581tours": 8108,
    "\u2581narrative": 8109,
    "a\u021bia": 8110,
    "\u2581maps": 8111,
    "treten": 8112,
    "\u2581mars": 8113,
    "\u2581moon": 8114,
    "rose": 8115,
    "\u2581exp": 8116,
    "zahl": 8117,
    "psych": 8118,
    "\u2581geh\u00f6rt": 8119,
    "\u2581bound": 8120,
    "\u2581submission": 8121,
    "\u2581clubs": 8122,
    "Am": 8123,
    "tenir": 8124,
    "\u2581boast": 8125,
    "\u2581boards": 8126,
    "\u2581Gesch\u00e4fts": 8127,
    "zing": 8128,
    "wort": 8129,
    "lid": 8130,
    "\u2581contractor": 8131,
    "\u2581donner": 8132,
    "\u2581coupon": 8133,
    "adresse": 8134,
    "colo": 8135,
    "\u2581perception": 8136,
    "NC": 8137,
    "\u2581abge": 8138,
    "\u2581cheaper": 8139,
    "\u2581grace": 8140,
    "\u2581resident": 8141,
    "kla": 8142,
    "\u2581bug": 8143,
    "\u2581Available": 8144,
    "\u2581BA": 8145,
    "\u2581Met": 8146,
    "\u2581climb": 8147,
    "\u2581expanded": 8148,
    "ying": 8149,
    "\u2581matching": 8150,
    "\u2581suffered": 8151,
    "\u2581employed": 8152,
    "pper": 8153,
    "\u2581experiencing": 8154,
    "ddy": 8155,
    "\u2581philosophy": 8156,
    "\u2581utilis\u00e9": 8157,
    "\u2581Jane": 8158,
    "LI": 8159,
    "\u2581elected": 8160,
    "\u2581MI": 8161,
    "\u2581ISO": 8162,
    "winning": 8163,
    "\u2581vot": 8164,
    "\u2581generic": 8165,
    "\u2581Bol": 8166,
    "\u2581copies": 8167,
    "\u2581mechanical": 8168,
    "g\u00fcnstig": 8169,
    "roy": 8170,
    "Astfel": 8171,
    "media": 8172,
    "\u2581shoulder": 8173,
    "\u2581directory": 8174,
    "\u2581banking": 8175,
    "\u2581mistakes": 8176,
    "\u2581Fran": 8177,
    "\u2581Jon": 8178,
    "\u2581spare": 8179,
    "metri": 8180,
    "\u2581mask": 8181,
    "\u2581consistently": 8182,
    "\u2581Columbia": 8183,
    "roid": 8184,
    "essen": 8185,
    "\u2581(\u201c": 8186,
    "\u2581s\u00e9rie": 8187,
    "\u2581Phil": 8188,
    "\u2581usor": 8189,
    "\u2581stood": 8190,
    "\u2581racing": 8191,
    "\u2581Comme": 8192,
    "\u2581exceed": 8193,
    "\u043d\u0430": 8194,
    "\u2581activate": 8195,
    "\u2581circle": 8196,
    "\u2581bold": 8197,
    "\u2581handy": 8198,
    "merely": 8199,
    "\u2581Edward": 8200,
    "\u2581contracts": 8201,
    "\u00ea": 8202,
    "\u2581campaigns": 8203,
    "\u2581ought": 8204,
    "\u2581nursing": 8205,
    "\u2581Jr": 8206,
    "\u2581rarely": 8207,
    "\u2581Mir": 8208,
    "\u2581diagnosis": 8209,
    "\u2581Theatre": 8210,
    "\u2581producer": 8211,
    "Currently": 8212,
    "\u2581fitting": 8213,
    "\u2581ajunge": 8214,
    "minte": 8215,
    "\u2581termen": 8216,
    "\u2581Linux": 8217,
    "\u25811-": 8218,
    "\u2581h\u00e4tte": 8219,
    "\u2581Resort": 8220,
    "image": 8221,
    "\u2581Rod": 8222,
    "\u2581Fly": 8223,
    "try": 8224,
    "\u2581expense": 8225,
    "\u2581Interior": 8226,
    "\u2581fence": 8227,
    "\u2581Kontakt": 8228,
    "\u2581ALL": 8229,
    "VA": 8230,
    "\u2581Exchange": 8231,
    "ranked": 8232,
    "\u2581Performance": 8233,
    "prim": 8234,
    "\u2581basket": 8235,
    "\u2581Vice": 8236,
    "phan": 8237,
    "\u2581broke": 8238,
    "voir": 8239,
    "arg": 8240,
    "ART": 8241,
    "\u2581floors": 8242,
    "pression": 8243,
    "\u2581possession": 8244,
    "\u2581domaine": 8245,
    "\u2581valeur": 8246,
    "\u2581suddenly": 8247,
    "\u2581mild": 8248,
    "\u2581aflat": 8249,
    "\u2581Tea": 8250,
    "tritt": 8251,
    "\u2581Mittel": 8252,
    "\u2581regulatory": 8253,
    "\u2581spectacular": 8254,
    "fahrt": 8255,
    "GS": 8256,
    "MM": 8257,
    "\u2581environments": 8258,
    "\u2581Raum": 8259,
    "\u2581lay": 8260,
    "\u2581cr\u00e9": 8261,
    "\u2581Selbst": 8262,
    "\u2581opposition": 8263,
    "two": 8264,
    "\u2581Clark": 8265,
    "\u2581Netz": 8266,
    "bald": 8267,
    "\u2581Innovation": 8268,
    "\u2581overcome": 8269,
    "quot": 8270,
    "\u2581Sin": 8271,
    "\u2581Sto": 8272,
    "\u2581grain": 8273,
    "\u2581collections": 8274,
    "\u2581applies": 8275,
    "mach": 8276,
    "\u2581wheels": 8277,
    "\u2581universities": 8278,
    "\u2581Ray": 8279,
    "lina": 8280,
    "\u2581arrangements": 8281,
    "\u2581western": 8282,
    "rous": 8283,
    "aise": 8284,
    "\u2581highlights": 8285,
    "\u2581intend": 8286,
    "aimed": 8287,
    "\u2581Scotland": 8288,
    "\u2581acestei": 8289,
    "graf": 8290,
    "duction": 8291,
    "path": 8292,
    "\u2581evil": 8293,
    "\u2581scris": 8294,
    "\u2581disposition": 8295,
    "\u2581designing": 8296,
    "zwar": 8297,
    "\u2581Retrieve": 8298,
    "\u2581aggressive": 8299,
    "\u2581Glen": 8300,
    "\u2581daher": 8301,
    "\u2581Quick": 8302,
    "\u2581recover": 8303,
    "\u2581prominent": 8304,
    "\u2581visits": 8305,
    "\u2581Mis": 8306,
    "\u2581edited": 8307,
    "\u2581distributed": 8308,
    "\u2581d\u00e9s": 8309,
    "\u2581alter": 8310,
    "\u2581cooked": 8311,
    "embl": 8312,
    "Univers": 8313,
    "\u2581Minuten": 8314,
    "\u2581compris": 8315,
    "rais": 8316,
    "essentially": 8317,
    "\u2581rel": 8318,
    "\u2581appel": 8319,
    "\u2581trace": 8320,
    "relating": 8321,
    "d\u00e8s": 8322,
    "aste": 8323,
    "\u2581raison": 8324,
    "\u2581frequent": 8325,
    "\u2581beds": 8326,
    "\u2581Miami": 8327,
    "\u2581vibrant": 8328,
    "\u2581Kam": 8329,
    "\u2581klar": 8330,
    "\u2581Tan": 8331,
    "\u2581vid\u00e9o": 8332,
    "\u2581Kur": 8333,
    "\u2581themes": 8334,
    "\u2581struggling": 8335,
    "\u2581Magazine": 8336,
    "maker": 8337,
    "veni": 8338,
    "\u2581Gro\u00df": 8339,
    "\u2581streaming": 8340,
    "\u2581analyze": 8341,
    "\u2581titles": 8342,
    "pier": 8343,
    "\u2581participant": 8344,
    "aims": 8345,
    "\u2581convention": 8346,
    "\u2581flood": 8347,
    "\u2581nights": 8348,
    "\u2581titre": 8349,
    "\u2581voul": 8350,
    "weit": 8351,
    "where": 8352,
    "\u2581Seiten": 8353,
    "\u2581relaxing": 8354,
    "\u2581piano": 8355,
    "\u2581Pick": 8356,
    "\u2581Sony": 8357,
    "\u2581enhanced": 8358,
    "\u2581visa": 8359,
    "CH": 8360,
    "\u2581instantly": 8361,
    "\u2581Fan": 8362,
    "\u2581diabetes": 8363,
    "\u2581popul": 8364,
    "Ang": 8365,
    "\u2581Ask": 8366,
    "cate": 8367,
    "\u2581simplu": 8368,
    "nahme": 8369,
    "\u2581dentist": 8370,
    "ubi": 8371,
    "article": 8372,
    "\u2581graph": 8373,
    "\u2581rival": 8374,
    "jahr": 8375,
    "\u2581bloc": 8376,
    "fern": 8377,
    "\u2581dispar": 8378,
    "\u2581servers": 8379,
    "\u2581patru": 8380,
    "\u2581Within": 8381,
    "\u2581situated": 8382,
    "\u2581HR": 8383,
    "\u2581leaf": 8384,
    "\u2581curs": 8385,
    "antes": 8386,
    "lux": 8387,
    "\u25811993": 8388,
    "stance": 8389,
    "\u2581northern": 8390,
    "lves": 8391,
    "\u2581contractors": 8392,
    "\u2581dimensions": 8393,
    "\u2581rolling": 8394,
    "\u2581automobile": 8395,
    "\u2581cru": 8396,
    "\u2581displays": 8397,
    "web": 8398,
    "had": 8399,
    "\u2581Never": 8400,
    "\u25812-": 8401,
    "vine": 8402,
    "\u2581Wahl": 8403,
    "\u2581Markt": 8404,
    "\u2581Double": 8405,
    "\u2581acknowledge": 8406,
    "stal": 8407,
    "\u2581equity": 8408,
    "\u2581ministry": 8409,
    "\u2581Lor": 8410,
    "\u2581sud": 8411,
    "id\u00e9e": 8412,
    "\u2581measured": 8413,
    "\u2581editing": 8414,
    "\u2581singur": 8415,
    "\u2581coal": 8416,
    "\u2581dramatic": 8417,
    "AG": 8418,
    "asca": 8419,
    "\u2581crash": 8420,
    "ischer": 8421,
    "\u2581Pla": 8422,
    "\u2581psycho": 8423,
    "piece": 8424,
    "\u2581finger": 8425,
    "\u2581Hollywood": 8426,
    "\u2581Cr": 8427,
    "\u2581locally": 8428,
    "\u2581mouse": 8429,
    "\u2581Base": 8430,
    "uite": 8431,
    "\u2581detect": 8432,
    "cea": 8433,
    "\u2581bull": 8434,
    "\u2581curve": 8435,
    "\u00e9t\u00e9": 8436,
    "ddle": 8437,
    "\u2581span": 8438,
    "WS": 8439,
    "CL": 8440,
    "\u2581officially": 8441,
    "\u2581corect": 8442,
    "\u2581Artikel": 8443,
    "\u2581customized": 8444,
    "\u2581intellectual": 8445,
    "\u2581heures": 8446,
    "schule": 8447,
    "\u2581investing": 8448,
    "\u2581parallel": 8449,
    "\u2581loi": 8450,
    "\u0103rile": 8451,
    "\u0440": 8452,
    "\u2581bench": 8453,
    "\u2581principle": 8454,
    "\u2581Galaxy": 8455,
    "\u021ba": 8456,
    "\u2581(4": 8457,
    "\u2581bedrooms": 8458,
    "n\u00e9e": 8459,
    "\u2581surely": 8460,
    "very": 8461,
    "stelle": 8462,
    "activ": 8463,
    "cite": 8464,
    "\u2581Original": 8465,
    "\u2581palm": 8466,
    "\u2581losses": 8467,
    "\u2581newspaper": 8468,
    "ciu": 8469,
    "\u2581Hold": 8470,
    "BO": 8471,
    "\u2581CON": 8472,
    "\u2581modified": 8473,
    "\u2581stake": 8474,
    "\u2581Ton": 8475,
    "\u2581luna": 8476,
    "\u2581Mind": 8477,
    "lap": 8478,
    "\u2581opinions": 8479,
[...]
